#include <cstdint>
#include <cstddef>
#include "BufAttributes.h"

static const uint8_t g_Model[] ALIGNMENT_ATTRIBUTE =  {
	0x1c, 0x00, 0x00, 0x00, 0x54, 0x46, 0x4c, 0x33, 0x14, 0x00, 0x20, 0x00, 0x1c, 0x00, 0x18, 0x00, 0x14, 0x00, 0x10, 0x00, 
	0x0c, 0x00, 0x00, 0x00, 0x08, 0x00, 0x04, 0x00, 0x14, 0x00, 0x00, 0x00, 0x1c, 0x00, 0x00, 0x00, 0x80, 0x00, 0x00, 0x00, 
	0xd8, 0x00, 0x00, 0x00, 0x24, 0x08, 0x00, 0x00, 0x34, 0x08, 0x00, 0x00, 0xcc, 0x10, 0x00, 0x00, 0x03, 0x00, 0x00, 0x00, 
	0x01, 0x00, 0x00, 0x00, 0x04, 0x00, 0x00, 0x00, 0x86, 0xf7, 0xff, 0xff, 0x0c, 0x00, 0x00, 0x00, 0x1c, 0x00, 0x00, 0x00, 
	0x38, 0x00, 0x00, 0x00, 0x0f, 0x00, 0x00, 0x00, 0x73, 0x65, 0x72, 0x76, 0x69, 0x6e, 0x67, 0x5f, 0x64, 0x65, 0x66, 0x61, 
	0x75, 0x6c, 0x74, 0x00, 0x01, 0x00, 0x00, 0x00, 0x04, 0x00, 0x00, 0x00, 0x9c, 0xff, 0xff, 0xff, 0x10, 0x00, 0x00, 0x00, 
	0x04, 0x00, 0x00, 0x00, 0x07, 0x00, 0x00, 0x00, 0x64, 0x65, 0x6e, 0x73, 0x65, 0x5f, 0x39, 0x00, 0x01, 0x00, 0x00, 0x00, 
	0x04, 0x00, 0x00, 0x00, 0x9a, 0xf8, 0xff, 0xff, 0x04, 0x00, 0x00, 0x00, 0x07, 0x00, 0x00, 0x00, 0x69, 0x6e, 0x70, 0x75, 
	0x74, 0x5f, 0x32, 0x00, 0x02, 0x00, 0x00, 0x00, 0x34, 0x00, 0x00, 0x00, 0x04, 0x00, 0x00, 0x00, 0xdc, 0xff, 0xff, 0xff, 
	0x13, 0x00, 0x00, 0x00, 0x04, 0x00, 0x00, 0x00, 0x13, 0x00, 0x00, 0x00, 0x43, 0x4f, 0x4e, 0x56, 0x45, 0x52, 0x53, 0x49, 
	0x4f, 0x4e, 0x5f, 0x4d, 0x45, 0x54, 0x41, 0x44, 0x41, 0x54, 0x41, 0x00, 0x08, 0x00, 0x0c, 0x00, 0x08, 0x00, 0x04, 0x00, 
	0x08, 0x00, 0x00, 0x00, 0x12, 0x00, 0x00, 0x00, 0x04, 0x00, 0x00, 0x00, 0x13, 0x00, 0x00, 0x00, 0x6d, 0x69, 0x6e, 0x5f, 
	0x72, 0x75, 0x6e, 0x74, 0x69, 0x6d, 0x65, 0x5f, 0x76, 0x65, 0x72, 0x73, 0x69, 0x6f, 0x6e, 0x00, 0x14, 0x00, 0x00, 0x00, 
	0x48, 0x07, 0x00, 0x00, 0x40, 0x07, 0x00, 0x00, 0xf0, 0x06, 0x00, 0x00, 0xb8, 0x06, 0x00, 0x00, 0x98, 0x06, 0x00, 0x00, 
	0x78, 0x06, 0x00, 0x00, 0x48, 0x06, 0x00, 0x00, 0x38, 0x04, 0x00, 0x00, 0xa8, 0x03, 0x00, 0x00, 0x58, 0x03, 0x00, 0x00, 
	0xc8, 0x02, 0x00, 0x00, 0xb8, 0x00, 0x00, 0x00, 0xb0, 0x00, 0x00, 0x00, 0xa8, 0x00, 0x00, 0x00, 0xa0, 0x00, 0x00, 0x00, 
	0x98, 0x00, 0x00, 0x00, 0x90, 0x00, 0x00, 0x00, 0x88, 0x00, 0x00, 0x00, 0x68, 0x00, 0x00, 0x00, 0x04, 0x00, 0x00, 0x00, 
	0x5e, 0xf9, 0xff, 0xff, 0x04, 0x00, 0x00, 0x00, 0x54, 0x00, 0x00, 0x00, 0x0c, 0x00, 0x00, 0x00, 0x08, 0x00, 0x0e, 0x00, 
	0x08, 0x00, 0x04, 0x00, 0x08, 0x00, 0x00, 0x00, 0x10, 0x00, 0x00, 0x00, 0x24, 0x00, 0x00, 0x00, 0x00, 0x00, 0x06, 0x00, 
	0x08, 0x00, 0x04, 0x00, 0x06, 0x00, 0x00, 0x00, 0x04, 0x00, 0x00, 0x00, 0x00, 0x00, 0x00, 0x00, 0x00, 0x00, 0x0a, 0x00, 
	0x10, 0x00, 0x0c, 0x00, 0x08, 0x00, 0x04, 0x00, 0x0a, 0x00, 0x00, 0x00, 0x02, 0x00, 0x00, 0x00, 0x02, 0x00, 0x00, 0x00, 
	0x04, 0x00, 0x00, 0x00, 0x06, 0x00, 0x00, 0x00, 0x32, 0x2e, 0x31, 0x30, 0x2e, 0x30, 0x00, 0x00, 0xbe, 0xf9, 0xff, 0xff, 
	0x04, 0x00, 0x00, 0x00, 0x10, 0x00, 0x00, 0x00, 0x31, 0x2e, 0x31, 0x34, 0x2e, 0x30, 0x00, 0x00, 0x00, 0x00, 0x00, 0x00, 
	0x00, 0x00, 0x00, 0x00, 0x04, 0xf1, 0xff, 0xff, 0x08, 0xf1, 0xff, 0xff, 0x0c, 0xf1, 0xff, 0xff, 0x10, 0xf1, 0xff, 0xff, 
	0x14, 0xf1, 0xff, 0xff, 0x18, 0xf1, 0xff, 0xff, 0xf2, 0xf9, 0xff, 0xff, 0x04, 0x00, 0x00, 0x00, 0x00, 0x02, 0x00, 0x00, 
	0xb6, 0x94, 0x56, 0x3e, 0x4c, 0x74, 0xa0, 0xbc, 0xe6, 0x34, 0xf5, 0x3e, 0x5a, 0x59, 0x0b, 0x3e, 0xe4, 0x00, 0xa6, 0x3e, 
	0xa0, 0x78, 0x13, 0xbd, 0x00, 0x7b, 0xef, 0xbd, 0xa9, 0xaf, 0xd8, 0xbe, 0xb8, 0x89, 0xd2, 0x3d, 0xcb, 0xde, 0x1d, 0xbf, 
	0xc7, 0x21, 0xd5, 0xbd, 0x74, 0x2c, 0x86, 0x3e, 0x64, 0x6f, 0xaa, 0x3e, 0x68, 0xe0, 0xa1, 0x3e, 0x1c, 0xac, 0x88, 0x3e, 
	0x0a, 0x63, 0x2e, 0xbd, 0x0c, 0xb5, 0x8a, 0xbc, 0xd7, 0xd4, 0xa6, 0xbd, 0x62, 0xf0, 0x62, 0x3e, 0xd6, 0x42, 0x46, 0xbd, 
	0x08, 0xc8, 0x4b, 0x3e, 0x24, 0x48, 0xad, 0x3e, 0x00, 0x04, 0x85, 0xbb, 0xde, 0xf4, 0x4c, 0xbd, 0x6b, 0xcc, 0xca, 0xbd, 
	0x5c, 0xc5, 0x5b, 0xbe, 0x27, 0xc7, 0x57, 0x3e, 0x60, 0x60, 0x32, 0xbe, 0xb8, 0xac, 0xdc, 0x3e, 0x04, 0x15, 0xc3, 0x3e, 
	0xec, 0xdc, 0xf5, 0x3e, 0x01, 0x2a, 0x28, 0x3e, 0x81, 0x6c, 0x00, 0xbf, 0x46, 0xe3, 0x20, 0xbf, 0x9c, 0xb1, 0xd0, 0x3e, 
	0x93, 0x95, 0x00, 0xbf, 0xb4, 0x71, 0x88, 0x3e, 0x28, 0x3b, 0x75, 0x3e, 0x80, 0xad, 0x84, 0x3c, 0xdd, 0x21, 0xbf, 0xbe, 
	0x8a, 0x1b, 0x56, 0xbf, 0x54, 0x23, 0xd1, 0xbe, 0x10, 0xea, 0xb0, 0xbe, 0x05, 0xb4, 0xdf, 0xbe, 0xac, 0x6a, 0xa0, 0xbe, 
	0x08, 0x86, 0x2f, 0xbe, 0xf0, 0xf0, 0x20, 0xbe, 0x82, 0xe1, 0xb4, 0xbe, 0x09, 0x01, 0x1a, 0xbe, 0xa0, 0xcb, 0x7e, 0xbf, 
	0xd0, 0xfd, 0x5c, 0x3d, 0xac, 0x98, 0x5c, 0xbf, 0x00, 0xf5, 0xe8, 0x3b, 0xb0, 0x7b, 0x9b, 0x3e, 0x38, 0xb5, 0x6f, 0x3e, 
	0x2e, 0xc8, 0x4b, 0xbd, 0x27, 0x5b, 0x67, 0xbf, 0x12, 0x0b, 0x0d, 0xbe, 0x4c, 0x4d, 0x0a, 0x3e, 0xb3, 0xb9, 0x04, 0xbf, 
	0x54, 0xa0, 0xcb, 0x3e, 0x70, 0x4f, 0xcb, 0xbe, 0x40, 0xb3, 0xaa, 0xbc, 0x75, 0x08, 0xce, 0xbe, 0xc4, 0xff, 0x59, 0xbf, 
	0xfd, 0x2d, 0x8c, 0xbe, 0x05, 0xcf, 0x09, 0x3e, 0xbf, 0x66, 0x32, 0xbe, 0x18, 0x02, 0x39, 0x3e, 0x90, 0x62, 0x99, 0xbe, 
	0x50, 0x16, 0x9f, 0xbd, 0x1c, 0x30, 0x98, 0xbe, 0x99, 0xf8, 0x18, 0xbf, 0xaf, 0x35, 0x1a, 0xbf, 0x2e, 0x09, 0x5a, 0x3e, 
	0x22, 0x7b, 0x34, 0xbe, 0x50, 0x97, 0xfb, 0x3d, 0xe0, 0xc0, 0xbe, 0x3e, 0xe0, 0xdc, 0xfb, 0xbe, 0xd0, 0x1d, 0xa8, 0xbe, 
	0xef, 0x06, 0x4e, 0xbe, 0xae, 0xce, 0x1e, 0xbf, 0x6e, 0xaa, 0x85, 0x3c, 0x12, 0xde, 0x20, 0xbf, 0x08, 0x33, 0x94, 0xbe, 
	0x40, 0x0b, 0xbf, 0x3c, 0xe0, 0x82, 0x81, 0xbd, 0x06, 0x98, 0x03, 0xbe, 0x65, 0x31, 0xb8, 0xbe, 0x4c, 0xa5, 0x59, 0xbf, 
	0x26, 0x81, 0x83, 0xbc, 0x34, 0xc4, 0x72, 0x3d, 0xe8, 0x1d, 0xa4, 0x3e, 0x00, 0x02, 0x8e, 0x3b, 0x60, 0x47, 0x6e, 0xbd, 
	0x89, 0x95, 0x02, 0xbf, 0x9e, 0x40, 0x1a, 0xbf, 0x36, 0x54, 0x50, 0xbe, 0xb2, 0x0e, 0x4e, 0x3e, 0x04, 0x4d, 0x10, 0xbf, 
	0x78, 0x0d, 0x4f, 0xbe, 0x88, 0x87, 0x16, 0xbe, 0x80, 0x15, 0x09, 0xbc, 0x8a, 0x46, 0x89, 0xbf, 0x67, 0x5c, 0xc9, 0xbe, 
	0x68, 0xb5, 0x25, 0xbf, 0x63, 0x90, 0x71, 0x3e, 0xd9, 0x3c, 0x3e, 0xbf, 0x50, 0xce, 0xee, 0x3d, 0x00, 0xe3, 0x19, 0x3d, 
	0x8c, 0xeb, 0xa9, 0x3e, 0x7b, 0xc1, 0x21, 0xbf, 0x4c, 0x4b, 0x22, 0xbf, 0xc5, 0x96, 0x11, 0xbf, 0x56, 0xa3, 0xd8, 0x3e, 
	0xc1, 0x55, 0x4e, 0xbf, 0xc4, 0x53, 0xe8, 0xbe, 0x48, 0x97, 0xda, 0xbe, 0x40, 0x4e, 0xed, 0x3e, 0xd6, 0x52, 0xe1, 0xbe, 
	0x0f, 0x35, 0x91, 0xbf, 0xec, 0xc8, 0x90, 0xbf, 0xe0, 0xfe, 0xa3, 0xbe, 0xc3, 0xb6, 0xcd, 0xbe, 0xc0, 0xcd, 0xfb, 0xbe, 
	0xf0, 0xfc, 0xe2, 0xbe, 0x0c, 0xce, 0x82, 0xbe, 0x82, 0xfd, 0x1b, 0xbe, 0xfe, 0xfb, 0xff, 0xff, 0x04, 0x00, 0x00, 0x00, 
	0x80, 0x00, 0x00, 0x00, 0x8c, 0x0e, 0x22, 0x3f, 0xe3, 0x9d, 0x18, 0xbf, 0x03, 0x73, 0x0d, 0x3f, 0x19, 0xbe, 0x27, 0x3f, 
	0xf2, 0xd9, 0x46, 0x3f, 0x5e, 0xe6, 0xaa, 0x3e, 0xad, 0x7c, 0x24, 0x3f, 0x24, 0x9a, 0xa1, 0xbe, 0x5e, 0x42, 0xb4, 0xbe, 
	0x4a, 0x53, 0xe7, 0x3e, 0x4a, 0x12, 0x1d, 0xbf, 0x1f, 0x1c, 0xc8, 0x3e, 0xd4, 0x9b, 0x95, 0x3f, 0x64, 0x5b, 0x12, 0xbf, 
	0xc4, 0x57, 0x1b, 0xbe, 0x80, 0x5a, 0x1a, 0xbe, 0xa0, 0x71, 0x0e, 0xbe, 0x20, 0x14, 0x19, 0x3e, 0x40, 0xfa, 0xe9, 0x3c, 
	0x7f, 0xcd, 0xdc, 0xbe, 0xcc, 0x27, 0x0f, 0xbe, 0x6e, 0xb0, 0x05, 0xbf, 0xca, 0x50, 0xf4, 0xbe, 0x50, 0xa7, 0x0c, 0xbd, 
	0xe8, 0x38, 0xed, 0xbd, 0x6c, 0x75, 0xe8, 0xbe, 0x4a, 0xb3, 0x99, 0xbe, 0x7a, 0xb8, 0xfa, 0xbe, 0x1b, 0xb9, 0x91, 0x3f, 
	0xf6, 0x53, 0x26, 0xbf, 0x35, 0x0a, 0x31, 0x3f, 0x89, 0x25, 0xf6, 0xbe, 0x8a, 0xfc, 0xff, 0xff, 0x04, 0x00, 0x00, 0x00, 
	0x40, 0x00, 0x00, 0x00, 0x1c, 0xca, 0x58, 0x3f, 0x3c, 0x45, 0x88, 0x3f, 0x52, 0xac, 0xfd, 0xbf, 0xb9, 0x0b, 0xc3, 0xbf, 
	0x59, 0xf5, 0xac, 0x3e, 0x71, 0x89, 0xd5, 0xbe, 0xa4, 0x0e, 0x2c, 0x3f, 0x30, 0xca, 0x5c, 0xbf, 0xf9, 0xf2, 0x54, 0xbf, 
	0xc0, 0xa1, 0x6f, 0x3c, 0x90, 0x72, 0xee, 0xbd, 0xe2, 0x02, 0xc5, 0xbe, 0xc3, 0x93, 0x55, 0xbf, 0xe6, 0x71, 0x5b, 0x3e, 
	0x14, 0x05, 0x74, 0x3e, 0xe6, 0x70, 0x57, 0xbf, 0xd6, 0xfc, 0xff, 0xff, 0x04, 0x00, 0x00, 0x00, 0x80, 0x00, 0x00, 0x00, 
	0xae, 0xef, 0x60, 0xbe, 0x24, 0xab, 0x31, 0x3f, 0x8b, 0xae, 0x51, 0x3f, 0x73, 0xb1, 0xa1, 0x3f, 0x5b, 0x1a, 0x3b, 0x3f, 
	0x84, 0x01, 0x89, 0x3f, 0x22, 0x71, 0xcf, 0x3e, 0x64, 0x93, 0xd6, 0x3d, 0xd7, 0x34, 0x2b, 0x3f, 0x82, 0xd0, 0x73, 0x3f, 
	0x83, 0xd2, 0x8a, 0x3f, 0xb3, 0x2f, 0xe0, 0x3e, 0xfb, 0xfd, 0x0b, 0x3f, 0xe5, 0xf8, 0x91, 0x3f, 0x71, 0x22, 0x76, 0x3e, 
	0x2c, 0xd5, 0x67, 0x3f, 0x1c, 0xe2, 0x1e, 0xbe, 0x93, 0xff, 0x53, 0x3e, 0xa9, 0xcc, 0xb2, 0xbf, 0x45, 0xae, 0x8b, 0x3d, 
	0x2d, 0x51, 0x0c, 0x3e, 0x44, 0x9b, 0xc0, 0x3e, 0x32, 0x49, 0x15, 0xbf, 0x48, 0x28, 0x35, 0x3f, 0x62, 0xa5, 0x8e, 0x3e, 
	0x6c, 0xb2, 0xc2, 0xbc, 0xef, 0x7b, 0xeb, 0xbf, 0xad, 0x3e, 0x03, 0x3f, 0x30, 0x9e, 0x92, 0xbe, 0xbb, 0xc1, 0xa6, 0x3e, 
	0xe4, 0x9f, 0x85, 0xbe, 0xf4, 0x92, 0x8d, 0x3f, 0x62, 0xfd, 0xff, 0xff, 0x04, 0x00, 0x00, 0x00, 0x00, 0x02, 0x00, 0x00, 
	0xb4, 0xe1, 0xe0, 0xbe, 0xf8, 0x12, 0x96, 0x3e, 0x08, 0xcb, 0xf8, 0xbe, 0x60, 0xbb, 0x8f, 0xbd, 0xc8, 0xa7, 0xb6, 0xbe, 
	0x90, 0xf4, 0xa0, 0x3e, 0x20, 0xbf, 0x1e, 0xbe, 0xc0, 0xca, 0x02, 0x3d, 0x20, 0xcf, 0x17, 0x3d, 0x18, 0x0e, 0x20, 0x3e, 
	0xb0, 0x51, 0x61, 0xbe, 0x30, 0x71, 0xc6, 0x3e, 0x18, 0x09, 0xfb, 0x3e, 0x00, 0x2b, 0x2f, 0xbc, 0x38, 0xe8, 0xb3, 0xbe, 
	0x50, 0x98, 0x0c, 0xbe, 0x49, 0x39, 0xd1, 0xbe, 0x40, 0x73, 0x25, 0x3f, 0x47, 0xf5, 0x86, 0xbd, 0xdb, 0x73, 0x54, 0x3e, 
	0xb3, 0xf6, 0x11, 0x3f, 0x9e, 0xd2, 0x51, 0x3e, 0xb7, 0x96, 0xe2, 0x3e, 0x2d, 0x40, 0x01, 0x3d, 0x77, 0x90, 0x76, 0x3e, 
	0xf3, 0x90, 0xf3, 0x3e, 0xed, 0x63, 0xa4, 0x3c, 0x61, 0xb3, 0x9e, 0x3e, 0x7a, 0x72, 0x90, 0x3f, 0xd0, 0x2d, 0x34, 0x3f, 
	0xb8, 0x7a, 0x0d, 0x3f, 0x9b, 0x87, 0xa3, 0x3f, 0x7e, 0x53, 0x1d, 0xbf, 0x0b, 0x5d, 0x07, 0xbf, 0x48, 0x67, 0x31, 0xbf, 
	0x48, 0x4d, 0x94, 0xbf, 0x2b, 0x38, 0xf0, 0xbd, 0xe1, 0x2d, 0xc7, 0xbe, 0x2b, 0xb8, 0xbd, 0xbe, 0x09, 0x7d, 0x4f, 0xbf, 
	0x2f, 0xa6, 0x59, 0xbf, 0x78, 0xe9, 0x26, 0xbf, 0xce, 0x7e, 0x35, 0xbf, 0x8f, 0x1a, 0x81, 0xbf, 0x1a, 0xa3, 0x6b, 0x3f, 
	0x46, 0x18, 0x8d, 0x3f, 0xdd, 0x8c, 0xc3, 0x3f, 0x06, 0x86, 0xf4, 0x3f, 0xd8, 0xfb, 0x46, 0x3e, 0xea, 0x25, 0xde, 0xbc, 
	0x47, 0x4d, 0x95, 0x3e, 0xc6, 0x29, 0xe6, 0x3d, 0xfe, 0x54, 0xf2, 0x3e, 0x12, 0x72, 0x17, 0x3f, 0x8a, 0x41, 0x95, 0xbd, 
	0x4b, 0xfb, 0x62, 0xbe, 0x7b, 0xfd, 0xef, 0x3e, 0x15, 0x02, 0xf9, 0x3d, 0x41, 0x6e, 0x2e, 0x3f, 0xd8, 0x22, 0x69, 0x3e, 
	0x9a, 0x00, 0x0d, 0x3f, 0xeb, 0x2f, 0x16, 0x3f, 0xbe, 0xb2, 0x1c, 0x3f, 0x0b, 0x69, 0x7f, 0x3f, 0xa8, 0xc2, 0xfc, 0x3e, 
	0xba, 0x17, 0x18, 0x3e, 0x15, 0xf7, 0x80, 0xbe, 0xd2, 0x13, 0x3a, 0x3e, 0xd8, 0x59, 0x0a, 0xbd, 0xca, 0x28, 0xf4, 0x3e, 
	0x7d, 0x98, 0x54, 0xbe, 0x71, 0xcc, 0xb5, 0x3e, 0xb4, 0xbf, 0x6f, 0x3e, 0xef, 0x58, 0x92, 0x3d, 0x76, 0x32, 0x9e, 0xbe, 
	0xc9, 0x91, 0xa5, 0x3e, 0x7a, 0x93, 0x52, 0x3f, 0xbb, 0x52, 0xc6, 0x3e, 0x33, 0x92, 0xa2, 0x3f, 0x2c, 0x47, 0x85, 0x3f, 
	0xfa, 0xfc, 0xaf, 0x3e, 0x17, 0x02, 0x8d, 0x3e, 0xf1, 0x25, 0xa7, 0xbe, 0x06, 0x99, 0x01, 0x3f, 0xd0, 0x37, 0x84, 0xbe, 
	0x3a, 0x17, 0x03, 0x3f, 0x3d, 0xcb, 0x9f, 0x3c, 0xed, 0xde, 0x2d, 0x3e, 0xbe, 0x99, 0x0a, 0x3f, 0xba, 0x8c, 0x3c, 0x3f, 
	0x26, 0x97, 0x10, 0x3f, 0x25, 0x9f, 0x31, 0x3f, 0x3b, 0x7b, 0x88, 0x3f, 0x0f, 0x95, 0x83, 0x3f, 0x79, 0x60, 0x4b, 0x3f, 
	0xca, 0x0f, 0x6b, 0x3f, 0x78, 0x05, 0x99, 0xbd, 0x91, 0x08, 0x81, 0x3e, 0x8b, 0x35, 0xf3, 0xbc, 0x07, 0xdd, 0x82, 0xbe, 
	0x58, 0x85, 0xf5, 0xbd, 0xe2, 0xa6, 0xe6, 0x3e, 0x1e, 0xd3, 0x71, 0xbe, 0x3b, 0xf6, 0xa1, 0xbd, 0x97, 0x8f, 0x06, 0xbe, 
	0x9b, 0x29, 0xbf, 0xbe, 0x7f, 0xfb, 0xe0, 0x3e, 0x0b, 0xe6, 0x89, 0x3e, 0x2a, 0xcc, 0x85, 0xbe, 0x1a, 0x23, 0xe7, 0x3e, 
	0xe7, 0x7b, 0x95, 0x3e, 0xc3, 0x96, 0xb7, 0x3e, 0xb8, 0x77, 0xe3, 0x3e, 0xfe, 0xe6, 0x53, 0x3f, 0x10, 0x38, 0x02, 0x3f, 
	0xe9, 0xe5, 0xed, 0x3e, 0x59, 0xe9, 0x47, 0x3f, 0xda, 0x2c, 0xc8, 0x3e, 0xa2, 0xb3, 0x3e, 0x3e, 0x6b, 0x83, 0x29, 0x3f, 
	0x89, 0x70, 0x06, 0x3f, 0x0d, 0xb9, 0xab, 0x3e, 0x78, 0xe6, 0x00, 0x3f, 0xda, 0xb3, 0x39, 0x3f, 0x93, 0xb6, 0x62, 0x3c, 
	0x47, 0x6c, 0x9a, 0x3f, 0x94, 0xb8, 0x85, 0x3e, 0xd0, 0x57, 0x15, 0x3f, 0x6e, 0xff, 0xff, 0xff, 0x04, 0x00, 0x00, 0x00, 
	0x20, 0x00, 0x00, 0x00, 0x00, 0x00, 0x00, 0x00, 0x5e, 0x70, 0x31, 0x3f, 0x9b, 0x2c, 0x92, 0x3f, 0x1e, 0x0a, 0x3c, 0x3f, 
	0x34, 0x3c, 0x2e, 0x3f, 0x08, 0xec, 0x1e, 0x3f, 0xa9, 0x53, 0x54, 0xbc, 0x4b, 0x04, 0x13, 0x3f, 0x9a, 0xff, 0xff, 0xff, 
	0x04, 0x00, 0x00, 0x00, 0x10, 0x00, 0x00, 0x00, 0x7b, 0x8e, 0x1b, 0x3f, 0xad, 0x05, 0x09, 0x3f, 0x73, 0x2d, 0x27, 0xbe, 
	0x4e, 0x79, 0x47, 0xbd, 0xb6, 0xff, 0xff, 0xff, 0x04, 0x00, 0x00, 0x00, 0x10, 0x00, 0x00, 0x00, 0xa5, 0xe1, 0xe9, 0x3e, 
	0x60, 0x72, 0x3f, 0xbd, 0x00, 0x00, 0x00, 0x00, 0x60, 0x27, 0xf8, 0xbc, 0xd2, 0xff, 0xff, 0xff, 0x04, 0x00, 0x00, 0x00, 
	0x20, 0x00, 0x00, 0x00, 0x7e, 0x0a, 0x31, 0x3f, 0xfe, 0x73, 0x82, 0x3e, 0x00, 0x51, 0x2d, 0xbc, 0x4c, 0xfd, 0xde, 0x3e, 
	0x00, 0x00, 0x00, 0x00, 0x00, 0x00, 0x00, 0x00, 0x00, 0x00, 0x00, 0x00, 0xd0, 0x0d, 0x9b, 0x3e, 0x00, 0x00, 0x06, 0x00, 
	0x08, 0x00, 0x04, 0x00, 0x06, 0x00, 0x00, 0x00, 0x04, 0x00, 0x00, 0x00, 0x40, 0x00, 0x00, 0x00, 0xe3, 0xc3, 0xec, 0x3d, 
	0x77, 0xc6, 0xbf, 0xbd, 0x83, 0xf4, 0xd5, 0xbd, 0xea, 0xfc, 0xdb, 0x3e, 0xef, 0xf6, 0x86, 0xbe, 0x91, 0xc5, 0xaf, 0xbe, 
	0x5c, 0xd5, 0x84, 0xbe, 0x12, 0xf6, 0x8a, 0xbe, 0x79, 0x13, 0xd5, 0xbe, 0xd2, 0x97, 0xa3, 0xbe, 0x5c, 0xaf, 0x9a, 0xbe, 
	0xd4, 0x9f, 0xc6, 0xbe, 0x49, 0xe0, 0x8d, 0xbe, 0x72, 0xe7, 0x82, 0xbe, 0x61, 0x9f, 0x5c, 0xbe, 0xd1, 0xdb, 0x94, 0xbe, 
	0x7c, 0xf7, 0xff, 0xff, 0x80, 0xf7, 0xff, 0xff, 0x0f, 0x00, 0x00, 0x00, 0x4d, 0x4c, 0x49, 0x52, 0x20, 0x43, 0x6f, 0x6e, 
	0x76, 0x65, 0x72, 0x74, 0x65, 0x64, 0x2e, 0x00, 0x01, 0x00, 0x00, 0x00, 0x14, 0x00, 0x00, 0x00, 0x00, 0x00, 0x0e, 0x00, 
	0x18, 0x00, 0x14, 0x00, 0x10, 0x00, 0x0c, 0x00, 0x08, 0x00, 0x04, 0x00, 0x0e, 0x00, 0x00, 0x00, 0x14, 0x00, 0x00, 0x00, 
	0x1c, 0x00, 0x00, 0x00, 0x78, 0x01, 0x00, 0x00, 0x7c, 0x01, 0x00, 0x00, 0x80, 0x01, 0x00, 0x00, 0x04, 0x00, 0x00, 0x00, 
	0x6d, 0x61, 0x69, 0x6e, 0x00, 0x00, 0x00, 0x00, 0x06, 0x00, 0x00, 0x00, 0x20, 0x01, 0x00, 0x00, 0xd8, 0x00, 0x00, 0x00, 
	0xa0, 0x00, 0x00, 0x00, 0x68, 0x00, 0x00, 0x00, 0x34, 0x00, 0x00, 0x00, 0x10, 0x00, 0x00, 0x00, 0x00, 0x00, 0x0a, 0x00, 
	0x10, 0x00, 0x0c, 0x00, 0x08, 0x00, 0x04, 0x00, 0x0a, 0x00, 0x00, 0x00, 0x0c, 0x00, 0x00, 0x00, 0x10, 0x00, 0x00, 0x00, 
	0x01, 0x00, 0x00, 0x00, 0x01, 0x00, 0x00, 0x00, 0x10, 0x00, 0x00, 0x00, 0x01, 0x00, 0x00, 0x00, 0x0f, 0x00, 0x00, 0x00, 
	0x32, 0xff, 0xff, 0xff, 0x10, 0x00, 0x00, 0x00, 0x00, 0x00, 0x00, 0x08, 0x0c, 0x00, 0x00, 0x00, 0x10, 0x00, 0x00, 0x00, 
	0x30, 0xf8, 0xff, 0xff, 0x01, 0x00, 0x00, 0x00, 0x0f, 0x00, 0x00, 0x00, 0x03, 0x00, 0x00, 0x00, 0x0e, 0x00, 0x00, 0x00, 
	0x0a, 0x00, 0x00, 0x00, 0x01, 0x00, 0x00, 0x00, 0x62, 0xff, 0xff, 0xff, 0x10, 0x00, 0x00, 0x00, 0x00, 0x00, 0x00, 0x08, 
	0x10, 0x00, 0x00, 0x00, 0x14, 0x00, 0x00, 0x00, 0x52, 0xff, 0xff, 0xff, 0x00, 0x00, 0x00, 0x01, 0x01, 0x00, 0x00, 0x00, 
	0x0e, 0x00, 0x00, 0x00, 0x03, 0x00, 0x00, 0x00, 0x0d, 0x00, 0x00, 0x00, 0x09, 0x00, 0x00, 0x00, 0x02, 0x00, 0x00, 0x00, 
	0x96, 0xff, 0xff, 0xff, 0x10, 0x00, 0x00, 0x00, 0x00, 0x00, 0x00, 0x08, 0x10, 0x00, 0x00, 0x00, 0x14, 0x00, 0x00, 0x00, 
	0x86, 0xff, 0xff, 0xff, 0x00, 0x00, 0x00, 0x01, 0x01, 0x00, 0x00, 0x00, 0x0d, 0x00, 0x00, 0x00, 0x03, 0x00, 0x00, 0x00, 
	0x0c, 0x00, 0x00, 0x00, 0x08, 0x00, 0x00, 0x00, 0x03, 0x00, 0x00, 0x00, 0xca, 0xff, 0xff, 0xff, 0x10, 0x00, 0x00, 0x00, 
	0x00, 0x00, 0x00, 0x08, 0x10, 0x00, 0x00, 0x00, 0x14, 0x00, 0x00, 0x00, 0xba, 0xff, 0xff, 0xff, 0x00, 0x00, 0x00, 0x01, 
	0x01, 0x00, 0x00, 0x00, 0x0c, 0x00, 0x00, 0x00, 0x03, 0x00, 0x00, 0x00, 0x0b, 0x00, 0x00, 0x00, 0x07, 0x00, 0x00, 0x00, 
	0x04, 0x00, 0x00, 0x00, 0x00, 0x00, 0x0e, 0x00, 0x16, 0x00, 0x00, 0x00, 0x10, 0x00, 0x0c, 0x00, 0x0b, 0x00, 0x04, 0x00, 
	0x0e, 0x00, 0x00, 0x00, 0x18, 0x00, 0x00, 0x00, 0x00, 0x00, 0x00, 0x08, 0x18, 0x00, 0x00, 0x00, 0x1c, 0x00, 0x00, 0x00, 
	0x00, 0x00, 0x06, 0x00, 0x08, 0x00, 0x07, 0x00, 0x06, 0x00, 0x00, 0x00, 0x00, 0x00, 0x00, 0x01, 0x01, 0x00, 0x00, 0x00, 
	0x0b, 0x00, 0x00, 0x00, 0x03, 0x00, 0x00, 0x00, 0x00, 0x00, 0x00, 0x00, 0x06, 0x00, 0x00, 0x00, 0x05, 0x00, 0x00, 0x00, 
	0x01, 0x00, 0x00, 0x00, 0x10, 0x00, 0x00, 0x00, 0x01, 0x00, 0x00, 0x00, 0x00, 0x00, 0x00, 0x00, 0x11, 0x00, 0x00, 0x00, 
	0x90, 0x06, 0x00, 0x00, 0x20, 0x06, 0x00, 0x00, 0xb0, 0x05, 0x00, 0x00, 0x58, 0x05, 0x00, 0x00, 0x00, 0x05, 0x00, 0x00, 
	0xa8, 0x04, 0x00, 0x00, 0x5c, 0x04, 0x00, 0x00, 0x10, 0x04, 0x00, 0x00, 0xc4, 0x03, 0x00, 0x00, 0x78, 0x03, 0x00, 0x00, 
	0x2c, 0x03, 0x00, 0x00, 0x98, 0x02, 0x00, 0x00, 0x04, 0x02, 0x00, 0x00, 0x70, 0x01, 0x00, 0x00, 0xdc, 0x00, 0x00, 0x00, 
	0x60, 0x00, 0x00, 0x00, 0x04, 0x00, 0x00, 0x00, 0xca, 0xf9, 0xff, 0xff, 0x00, 0x00, 0x00, 0x01, 0x14, 0x00, 0x00, 0x00, 
	0x1c, 0x00, 0x00, 0x00, 0x1c, 0x00, 0x00, 0x00, 0x11, 0x00, 0x00, 0x00, 0x34, 0x00, 0x00, 0x00, 0x02, 0x00, 0x00, 0x00, 
	0xff, 0xff, 0xff, 0xff, 0x10, 0x00, 0x00, 0x00, 0xb4, 0xf9, 0xff, 0xff, 0x19, 0x00, 0x00, 0x00, 0x53, 0x74, 0x61, 0x74, 
	0x65, 0x66, 0x75, 0x6c, 0x50, 0x61, 0x72, 0x74, 0x69, 0x74, 0x69, 0x6f, 0x6e, 0x65, 0x64, 0x43, 0x61, 0x6c, 0x6c, 0x3a, 
	0x30, 0x00, 0x00, 0x00, 0x02, 0x00, 0x00, 0x00, 0x01, 0x00, 0x00, 0x00, 0x10, 0x00, 0x00, 0x00, 0x22, 0xfa, 0xff, 0xff, 
	0x00, 0x00, 0x00, 0x01, 0x14, 0x00, 0x00, 0x00, 0x1c, 0x00, 0x00, 0x00, 0x1c, 0x00, 0x00, 0x00, 0x10, 0x00, 0x00, 0x00, 
	0x54, 0x00, 0x00, 0x00, 0x02, 0x00, 0x00, 0x00, 0xff, 0xff, 0xff, 0xff, 0x10, 0x00, 0x00, 0x00, 0x0c, 0xfa, 0xff, 0xff, 
	0x38, 0x00, 0x00, 0x00, 0x73, 0x65, 0x71, 0x75, 0x65, 0x6e, 0x74, 0x69, 0x61, 0x6c, 0x5f, 0x31, 0x2f, 0x64, 0x65, 0x6e, 
	0x73, 0x65, 0x5f, 0x39, 0x2f, 0x4d, 0x61, 0x74, 0x4d, 0x75, 0x6c, 0x3b, 0x73, 0x65, 0x71, 0x75, 0x65, 0x6e, 0x74, 0x69, 
	0x61, 0x6c, 0x5f, 0x31, 0x2f, 0x64, 0x65, 0x6e, 0x73, 0x65, 0x5f, 0x39, 0x2f, 0x42, 0x69, 0x61, 0x73, 0x41, 0x64, 0x64, 
	0x00, 0x00, 0x00, 0x00, 0x02, 0x00, 0x00, 0x00, 0x01, 0x00, 0x00, 0x00, 0x10, 0x00, 0x00, 0x00, 0x9a, 0xfa, 0xff, 0xff, 
	0x00, 0x00, 0x00, 0x01, 0x14, 0x00, 0x00, 0x00, 0x1c, 0x00, 0x00, 0x00, 0x1c, 0x00, 0x00, 0x00, 0x0f, 0x00, 0x00, 0x00, 
	0x6c, 0x00, 0x00, 0x00, 0x02, 0x00, 0x00, 0x00, 0xff, 0xff, 0xff, 0xff, 0x08, 0x00, 0x00, 0x00, 0x84, 0xfa, 0xff, 0xff, 
	0x52, 0x00, 0x00, 0x00, 0x73, 0x65, 0x71, 0x75, 0x65, 0x6e, 0x74, 0x69, 0x61, 0x6c, 0x5f, 0x31, 0x2f, 0x64, 0x65, 0x6e, 
	0x73, 0x65, 0x5f, 0x38, 0x2f, 0x4d, 0x61, 0x74, 0x4d, 0x75, 0x6c, 0x3b, 0x73, 0x65, 0x71, 0x75, 0x65, 0x6e, 0x74, 0x69, 
	0x61, 0x6c, 0x5f, 0x31, 0x2f, 0x64, 0x65, 0x6e, 0x73, 0x65, 0x5f, 0x38, 0x2f, 0x52, 0x65, 0x6c, 0x75, 0x3b, 0x73, 0x65, 
	0x71, 0x75, 0x65, 0x6e, 0x74, 0x69, 0x61, 0x6c, 0x5f, 0x31, 0x2f, 0x64, 0x65, 0x6e, 0x73, 0x65, 0x5f, 0x38, 0x2f, 0x42, 
	0x69, 0x61, 0x73, 0x41, 0x64, 0x64, 0x00, 0x00, 0x02, 0x00, 0x00, 0x00, 0x01, 0x00, 0x00, 0x00, 0x08, 0x00, 0x00, 0x00, 
	0x2a, 0xfb, 0xff, 0xff, 0x00, 0x00, 0x00, 0x01, 0x14, 0x00, 0x00, 0x00, 0x1c, 0x00, 0x00, 0x00, 0x1c, 0x00, 0x00, 0x00, 
	0x0e, 0x00, 0x00, 0x00, 0x6c, 0x00, 0x00, 0x00, 0x02, 0x00, 0x00, 0x00, 0xff, 0xff, 0xff, 0xff, 0x04, 0x00, 0x00, 0x00, 
	0x14, 0xfb, 0xff, 0xff, 0x52, 0x00, 0x00, 0x00, 0x73, 0x65, 0x71, 0x75, 0x65, 0x6e, 0x74, 0x69, 0x61, 0x6c, 0x5f, 0x31, 
	0x2f, 0x64, 0x65, 0x6e, 0x73, 0x65, 0x5f, 0x37, 0x2f, 0x4d, 0x61, 0x74, 0x4d, 0x75, 0x6c, 0x3b, 0x73, 0x65, 0x71, 0x75, 
	0x65, 0x6e, 0x74, 0x69, 0x61, 0x6c, 0x5f, 0x31, 0x2f, 0x64, 0x65, 0x6e, 0x73, 0x65, 0x5f, 0x37, 0x2f, 0x52, 0x65, 0x6c, 
	0x75, 0x3b, 0x73, 0x65, 0x71, 0x75, 0x65, 0x6e, 0x74, 0x69, 0x61, 0x6c, 0x5f, 0x31, 0x2f, 0x64, 0x65, 0x6e, 0x73, 0x65, 
	0x5f, 0x37, 0x2f, 0x42, 0x69, 0x61, 0x73, 0x41, 0x64, 0x64, 0x00, 0x00, 0x02, 0x00, 0x00, 0x00, 0x01, 0x00, 0x00, 0x00, 
	0x04, 0x00, 0x00, 0x00, 0xba, 0xfb, 0xff, 0xff, 0x00, 0x00, 0x00, 0x01, 0x14, 0x00, 0x00, 0x00, 0x1c, 0x00, 0x00, 0x00, 
	0x1c, 0x00, 0x00, 0x00, 0x0d, 0x00, 0x00, 0x00, 0x6c, 0x00, 0x00, 0x00, 0x02, 0x00, 0x00, 0x00, 0xff, 0xff, 0xff, 0xff, 
	0x04, 0x00, 0x00, 0x00, 0xa4, 0xfb, 0xff, 0xff, 0x52, 0x00, 0x00, 0x00, 0x73, 0x65, 0x71, 0x75, 0x65, 0x6e, 0x74, 0x69, 
	0x61, 0x6c, 0x5f, 0x31, 0x2f, 0x64, 0x65, 0x6e, 0x73, 0x65, 0x5f, 0x36, 0x2f, 0x4d, 0x61, 0x74, 0x4d, 0x75, 0x6c, 0x3b, 
	0x73, 0x65, 0x71, 0x75, 0x65, 0x6e, 0x74, 0x69, 0x61, 0x6c, 0x5f, 0x31, 0x2f, 0x64, 0x65, 0x6e, 0x73, 0x65, 0x5f, 0x36, 
	0x2f, 0x52, 0x65, 0x6c, 0x75, 0x3b, 0x73, 0x65, 0x71, 0x75, 0x65, 0x6e, 0x74, 0x69, 0x61, 0x6c, 0x5f, 0x31, 0x2f, 0x64, 
	0x65, 0x6e, 0x73, 0x65, 0x5f, 0x36, 0x2f, 0x42, 0x69, 0x61, 0x73, 0x41, 0x64, 0x64, 0x00, 0x00, 0x02, 0x00, 0x00, 0x00, 
	0x01, 0x00, 0x00, 0x00, 0x04, 0x00, 0x00, 0x00, 0x4a, 0xfc, 0xff, 0xff, 0x00, 0x00, 0x00, 0x01, 0x14, 0x00, 0x00, 0x00, 
	0x1c, 0x00, 0x00, 0x00, 0x1c, 0x00, 0x00, 0x00, 0x0c, 0x00, 0x00, 0x00, 0x6c, 0x00, 0x00, 0x00, 0x02, 0x00, 0x00, 0x00, 
	0xff, 0xff, 0xff, 0xff, 0x08, 0x00, 0x00, 0x00, 0x34, 0xfc, 0xff, 0xff, 0x52, 0x00, 0x00, 0x00, 0x73, 0x65, 0x71, 0x75, 
	0x65, 0x6e, 0x74, 0x69, 0x61, 0x6c, 0x5f, 0x31, 0x2f, 0x64, 0x65, 0x6e, 0x73, 0x65, 0x5f, 0x35, 0x2f, 0x4d, 0x61, 0x74, 
	0x4d, 0x75, 0x6c, 0x3b, 0x73, 0x65, 0x71, 0x75, 0x65, 0x6e, 0x74, 0x69, 0x61, 0x6c, 0x5f, 0x31, 0x2f, 0x64, 0x65, 0x6e, 
	0x73, 0x65, 0x5f, 0x35, 0x2f, 0x52, 0x65, 0x6c, 0x75, 0x3b, 0x73, 0x65, 0x71, 0x75, 0x65, 0x6e, 0x74, 0x69, 0x61, 0x6c, 
	0x5f, 0x31, 0x2f, 0x64, 0x65, 0x6e, 0x73, 0x65, 0x5f, 0x35, 0x2f, 0x42, 0x69, 0x61, 0x73, 0x41, 0x64, 0x64, 0x00, 0x00, 
	0x02, 0x00, 0x00, 0x00, 0x01, 0x00, 0x00, 0x00, 0x08, 0x00, 0x00, 0x00, 0x46, 0xfd, 0xff, 0xff, 0x00, 0x00, 0x00, 0x01, 
	0x10, 0x00, 0x00, 0x00, 0x10, 0x00, 0x00, 0x00, 0x0b, 0x00, 0x00, 0x00, 0x28, 0x00, 0x00, 0x00, 0xb4, 0xfc, 0xff, 0xff, 
	0x1b, 0x00, 0x00, 0x00, 0x73, 0x65, 0x71, 0x75, 0x65, 0x6e, 0x74, 0x69, 0x61, 0x6c, 0x5f, 0x31, 0x2f, 0x64, 0x65, 0x6e, 
	0x73, 0x65, 0x5f, 0x39, 0x2f, 0x4d, 0x61, 0x74, 0x4d, 0x75, 0x6c, 0x00, 0x02, 0x00, 0x00, 0x00, 0x10, 0x00, 0x00, 0x00, 
	0x08, 0x00, 0x00, 0x00, 0x8e, 0xfd, 0xff, 0xff, 0x00, 0x00, 0x00, 0x01, 0x10, 0x00, 0x00, 0x00, 0x10, 0x00, 0x00, 0x00, 
	0x0a, 0x00, 0x00, 0x00, 0x28, 0x00, 0x00, 0x00, 0xfc, 0xfc, 0xff, 0xff, 0x1b, 0x00, 0x00, 0x00, 0x73, 0x65, 0x71, 0x75, 
	0x65, 0x6e, 0x74, 0x69, 0x61, 0x6c, 0x5f, 0x31, 0x2f, 0x64, 0x65, 0x6e, 0x73, 0x65, 0x5f, 0x38, 0x2f, 0x4d, 0x61, 0x74, 
	0x4d, 0x75, 0x6c, 0x00, 0x02, 0x00, 0x00, 0x00, 0x08, 0x00, 0x00, 0x00, 0x04, 0x00, 0x00, 0x00, 0xd6, 0xfd, 0xff, 0xff, 
	0x00, 0x00, 0x00, 0x01, 0x10, 0x00, 0x00, 0x00, 0x10, 0x00, 0x00, 0x00, 0x09, 0x00, 0x00, 0x00, 0x28, 0x00, 0x00, 0x00, 
	0x44, 0xfd, 0xff, 0xff, 0x1b, 0x00, 0x00, 0x00, 0x73, 0x65, 0x71, 0x75, 0x65, 0x6e, 0x74, 0x69, 0x61, 0x6c, 0x5f, 0x31, 
	0x2f, 0x64, 0x65, 0x6e, 0x73, 0x65, 0x5f, 0x37, 0x2f, 0x4d, 0x61, 0x74, 0x4d, 0x75, 0x6c, 0x00, 0x02, 0x00, 0x00, 0x00, 
	0x04, 0x00, 0x00, 0x00, 0x04, 0x00, 0x00, 0x00, 0x1e, 0xfe, 0xff, 0xff, 0x00, 0x00, 0x00, 0x01, 0x10, 0x00, 0x00, 0x00, 
	0x10, 0x00, 0x00, 0x00, 0x08, 0x00, 0x00, 0x00, 0x28, 0x00, 0x00, 0x00, 0x8c, 0xfd, 0xff, 0xff, 0x1b, 0x00, 0x00, 0x00, 
	0x73, 0x65, 0x71, 0x75, 0x65, 0x6e, 0x74, 0x69, 0x61, 0x6c, 0x5f, 0x31, 0x2f, 0x64, 0x65, 0x6e, 0x73, 0x65, 0x5f, 0x36, 
	0x2f, 0x4d, 0x61, 0x74, 0x4d, 0x75, 0x6c, 0x00, 0x02, 0x00, 0x00, 0x00, 0x04, 0x00, 0x00, 0x00, 0x08, 0x00, 0x00, 0x00, 
	0x66, 0xfe, 0xff, 0xff, 0x00, 0x00, 0x00, 0x01, 0x10, 0x00, 0x00, 0x00, 0x10, 0x00, 0x00, 0x00, 0x07, 0x00, 0x00, 0x00, 
	0x28, 0x00, 0x00, 0x00, 0xd4, 0xfd, 0xff, 0xff, 0x1b, 0x00, 0x00, 0x00, 0x73, 0x65, 0x71, 0x75, 0x65, 0x6e, 0x74, 0x69, 
	0x61, 0x6c, 0x5f, 0x31, 0x2f, 0x64, 0x65, 0x6e, 0x73, 0x65, 0x5f, 0x35, 0x2f, 0x4d, 0x61, 0x74, 0x4d, 0x75, 0x6c, 0x00, 
	0x02, 0x00, 0x00, 0x00, 0x08, 0x00, 0x00, 0x00, 0x10, 0x00, 0x00, 0x00, 0xae, 0xfe, 0xff, 0xff, 0x00, 0x00, 0x00, 0x01, 
	0x10, 0x00, 0x00, 0x00, 0x10, 0x00, 0x00, 0x00, 0x06, 0x00, 0x00, 0x00, 0x38, 0x00, 0x00, 0x00, 0x1c, 0xfe, 0xff, 0xff, 
	0x2b, 0x00, 0x00, 0x00, 0x73, 0x65, 0x71, 0x75, 0x65, 0x6e, 0x74, 0x69, 0x61, 0x6c, 0x5f, 0x31, 0x2f, 0x64, 0x65, 0x6e, 
	0x73, 0x65, 0x5f, 0x35, 0x2f, 0x42, 0x69, 0x61, 0x73, 0x41, 0x64, 0x64, 0x2f, 0x52, 0x65, 0x61, 0x64, 0x56, 0x61, 0x72, 
	0x69, 0x61, 0x62, 0x6c, 0x65, 0x4f, 0x70, 0x00, 0x01, 0x00, 0x00, 0x00, 0x08, 0x00, 0x00, 0x00, 0x02, 0xff, 0xff, 0xff, 
	0x00, 0x00, 0x00, 0x01, 0x10, 0x00, 0x00, 0x00, 0x10, 0x00, 0x00, 0x00, 0x05, 0x00, 0x00, 0x00, 0x38, 0x00, 0x00, 0x00, 
	0x70, 0xfe, 0xff, 0xff, 0x2b, 0x00, 0x00, 0x00, 0x73, 0x65, 0x71, 0x75, 0x65, 0x6e, 0x74, 0x69, 0x61, 0x6c, 0x5f, 0x31, 
	0x2f, 0x64, 0x65, 0x6e, 0x73, 0x65, 0x5f, 0x36, 0x2f, 0x42, 0x69, 0x61, 0x73, 0x41, 0x64, 0x64, 0x2f, 0x52, 0x65, 0x61, 
	0x64, 0x56, 0x61, 0x72, 0x69, 0x61, 0x62, 0x6c, 0x65, 0x4f, 0x70, 0x00, 0x01, 0x00, 0x00, 0x00, 0x04, 0x00, 0x00, 0x00, 
	0x56, 0xff, 0xff, 0xff, 0x00, 0x00, 0x00, 0x01, 0x10, 0x00, 0x00, 0x00, 0x10, 0x00, 0x00, 0x00, 0x04, 0x00, 0x00, 0x00, 
	0x38, 0x00, 0x00, 0x00, 0xc4, 0xfe, 0xff, 0xff, 0x2b, 0x00, 0x00, 0x00, 0x73, 0x65, 0x71, 0x75, 0x65, 0x6e, 0x74, 0x69, 
	0x61, 0x6c, 0x5f, 0x31, 0x2f, 0x64, 0x65, 0x6e, 0x73, 0x65, 0x5f, 0x37, 0x2f, 0x42, 0x69, 0x61, 0x73, 0x41, 0x64, 0x64, 
	0x2f, 0x52, 0x65, 0x61, 0x64, 0x56, 0x61, 0x72, 0x69, 0x61, 0x62, 0x6c, 0x65, 0x4f, 0x70, 0x00, 0x01, 0x00, 0x00, 0x00, 
	0x04, 0x00, 0x00, 0x00, 0xaa, 0xff, 0xff, 0xff, 0x00, 0x00, 0x00, 0x01, 0x10, 0x00, 0x00, 0x00, 0x10, 0x00, 0x00, 0x00, 
	0x03, 0x00, 0x00, 0x00, 0x38, 0x00, 0x00, 0x00, 0x18, 0xff, 0xff, 0xff, 0x2b, 0x00, 0x00, 0x00, 0x73, 0x65, 0x71, 0x75, 
	0x65, 0x6e, 0x74, 0x69, 0x61, 0x6c, 0x5f, 0x31, 0x2f, 0x64, 0x65, 0x6e, 0x73, 0x65, 0x5f, 0x38, 0x2f, 0x42, 0x69, 0x61, 
	0x73, 0x41, 0x64, 0x64, 0x2f, 0x52, 0x65, 0x61, 0x64, 0x56, 0x61, 0x72, 0x69, 0x61, 0x62, 0x6c, 0x65, 0x4f, 0x70, 0x00, 
	0x01, 0x00, 0x00, 0x00, 0x08, 0x00, 0x00, 0x00, 0x00, 0x00, 0x16, 0x00, 0x18, 0x00, 0x14, 0x00, 0x00, 0x00, 0x10, 0x00, 
	0x0c, 0x00, 0x08, 0x00, 0x00, 0x00, 0x00, 0x00, 0x00, 0x00, 0x07, 0x00, 0x16, 0x00, 0x00, 0x00, 0x00, 0x00, 0x00, 0x01, 
	0x10, 0x00, 0x00, 0x00, 0x10, 0x00, 0x00, 0x00, 0x02, 0x00, 0x00, 0x00, 0x38, 0x00, 0x00, 0x00, 0x84, 0xff, 0xff, 0xff, 
	0x2b, 0x00, 0x00, 0x00, 0x73, 0x65, 0x71, 0x75, 0x65, 0x6e, 0x74, 0x69, 0x61, 0x6c, 0x5f, 0x31, 0x2f, 0x64, 0x65, 0x6e, 
	0x73, 0x65, 0x5f, 0x39, 0x2f, 0x42, 0x69, 0x61, 0x73, 0x41, 0x64, 0x64, 0x2f, 0x52, 0x65, 0x61, 0x64, 0x56, 0x61, 0x72, 
	0x69, 0x61, 0x62, 0x6c, 0x65, 0x4f, 0x70, 0x00, 0x01, 0x00, 0x00, 0x00, 0x10, 0x00, 0x00, 0x00, 0x00, 0x00, 0x16, 0x00, 
	0x1c, 0x00, 0x18, 0x00, 0x00, 0x00, 0x14, 0x00, 0x10, 0x00, 0x0c, 0x00, 0x00, 0x00, 0x00, 0x00, 0x08, 0x00, 0x07, 0x00, 
	0x16, 0x00, 0x00, 0x00, 0x00, 0x00, 0x00, 0x01, 0x14, 0x00, 0x00, 0x00, 0x20, 0x00, 0x00, 0x00, 0x20, 0x00, 0x00, 0x00, 
	0x01, 0x00, 0x00, 0x00, 0x38, 0x00, 0x00, 0x00, 0x02, 0x00, 0x00, 0x00, 0xff, 0xff, 0xff, 0xff, 0x10, 0x00, 0x00, 0x00, 
	0x04, 0x00, 0x04, 0x00, 0x04, 0x00, 0x00, 0x00, 0x19, 0x00, 0x00, 0x00, 0x73, 0x65, 0x72, 0x76, 0x69, 0x6e, 0x67, 0x5f, 
	0x64, 0x65, 0x66, 0x61, 0x75, 0x6c, 0x74, 0x5f, 0x69, 0x6e, 0x70, 0x75, 0x74, 0x5f, 0x32, 0x3a, 0x30, 0x00, 0x00, 0x00, 
	0x02, 0x00, 0x00, 0x00, 0x01, 0x00, 0x00, 0x00, 0x10, 0x00, 0x00, 0x00, 0x02, 0x00, 0x00, 0x00, 0x20, 0x00, 0x00, 0x00, 
	0x04, 0x00, 0x00, 0x00, 0xf4, 0xff, 0xff, 0xff, 0x0e, 0x00, 0x00, 0x00, 0x00, 0x00, 0x00, 0x0e, 0x0c, 0x00, 0x0c, 0x00, 
	0x0b, 0x00, 0x00, 0x00, 0x00, 0x00, 0x04, 0x00, 0x0c, 0x00, 0x00, 0x00, 0x09, 0x00, 0x00, 0x00, 0x00, 0x00, 0x00, 0x09, 
	};


const uint8_t * GetModelPointer()
{
    return g_Model;
}

size_t GetModelLen()
{
    return sizeof(g_Model);
}


const float GetThreshold()
{
    return 0.010711372829973698;
}                    
                    
const float GetMaxValTrain()
{
    return 3158.1043774;
}

const uint8_t GetFrameLenSample()
{
    return 300;
}

const float GetMinValTrain()
{
    return -0.619863934954322;
}

