#include <cstdint>
#include <cstddef>
#include "BufAttributes.h"

static const uint8_t g_Model[] ALIGNMENT_ATTRIBUTE =  {
	0x1c, 0x00, 0x00, 0x00, 0x54, 0x46, 0x4c, 0x33, 0x14, 0x00, 0x20, 0x00, 0x1c, 0x00, 0x18, 0x00, 0x14, 0x00, 0x10, 0x00, 
	0x0c, 0x00, 0x00, 0x00, 0x08, 0x00, 0x04, 0x00, 0x14, 0x00, 0x00, 0x00, 0x1c, 0x00, 0x00, 0x00, 0x80, 0x00, 0x00, 0x00, 
	0xd8, 0x00, 0x00, 0x00, 0x24, 0x08, 0x00, 0x00, 0x34, 0x08, 0x00, 0x00, 0xa8, 0x10, 0x00, 0x00, 0x03, 0x00, 0x00, 0x00, 
	0x01, 0x00, 0x00, 0x00, 0x04, 0x00, 0x00, 0x00, 0x86, 0xf7, 0xff, 0xff, 0x0c, 0x00, 0x00, 0x00, 0x1c, 0x00, 0x00, 0x00, 
	0x38, 0x00, 0x00, 0x00, 0x0f, 0x00, 0x00, 0x00, 0x73, 0x65, 0x72, 0x76, 0x69, 0x6e, 0x67, 0x5f, 0x64, 0x65, 0x66, 0x61, 
	0x75, 0x6c, 0x74, 0x00, 0x01, 0x00, 0x00, 0x00, 0x04, 0x00, 0x00, 0x00, 0x9c, 0xff, 0xff, 0xff, 0x10, 0x00, 0x00, 0x00, 
	0x04, 0x00, 0x00, 0x00, 0x07, 0x00, 0x00, 0x00, 0x64, 0x65, 0x6e, 0x73, 0x65, 0x5f, 0x34, 0x00, 0x01, 0x00, 0x00, 0x00, 
	0x04, 0x00, 0x00, 0x00, 0x6a, 0xf8, 0xff, 0xff, 0x04, 0x00, 0x00, 0x00, 0x07, 0x00, 0x00, 0x00, 0x69, 0x6e, 0x70, 0x75, 
	0x74, 0x5f, 0x31, 0x00, 0x02, 0x00, 0x00, 0x00, 0x34, 0x00, 0x00, 0x00, 0x04, 0x00, 0x00, 0x00, 0xdc, 0xff, 0xff, 0xff, 
	0x13, 0x00, 0x00, 0x00, 0x04, 0x00, 0x00, 0x00, 0x13, 0x00, 0x00, 0x00, 0x43, 0x4f, 0x4e, 0x56, 0x45, 0x52, 0x53, 0x49, 
	0x4f, 0x4e, 0x5f, 0x4d, 0x45, 0x54, 0x41, 0x44, 0x41, 0x54, 0x41, 0x00, 0x08, 0x00, 0x0c, 0x00, 0x08, 0x00, 0x04, 0x00, 
	0x08, 0x00, 0x00, 0x00, 0x12, 0x00, 0x00, 0x00, 0x04, 0x00, 0x00, 0x00, 0x13, 0x00, 0x00, 0x00, 0x6d, 0x69, 0x6e, 0x5f, 
	0x72, 0x75, 0x6e, 0x74, 0x69, 0x6d, 0x65, 0x5f, 0x76, 0x65, 0x72, 0x73, 0x69, 0x6f, 0x6e, 0x00, 0x14, 0x00, 0x00, 0x00, 
	0x48, 0x07, 0x00, 0x00, 0x40, 0x07, 0x00, 0x00, 0x20, 0x07, 0x00, 0x00, 0xf8, 0x06, 0x00, 0x00, 0xc8, 0x06, 0x00, 0x00, 
	0x78, 0x06, 0x00, 0x00, 0x48, 0x06, 0x00, 0x00, 0x38, 0x04, 0x00, 0x00, 0xa8, 0x03, 0x00, 0x00, 0x58, 0x03, 0x00, 0x00, 
	0xc8, 0x02, 0x00, 0x00, 0xb8, 0x00, 0x00, 0x00, 0xb0, 0x00, 0x00, 0x00, 0xa8, 0x00, 0x00, 0x00, 0xa0, 0x00, 0x00, 0x00, 
	0x98, 0x00, 0x00, 0x00, 0x90, 0x00, 0x00, 0x00, 0x88, 0x00, 0x00, 0x00, 0x68, 0x00, 0x00, 0x00, 0x04, 0x00, 0x00, 0x00, 
	0x2e, 0xf9, 0xff, 0xff, 0x04, 0x00, 0x00, 0x00, 0x54, 0x00, 0x00, 0x00, 0x0c, 0x00, 0x00, 0x00, 0x08, 0x00, 0x0e, 0x00, 
	0x08, 0x00, 0x04, 0x00, 0x08, 0x00, 0x00, 0x00, 0x10, 0x00, 0x00, 0x00, 0x24, 0x00, 0x00, 0x00, 0x00, 0x00, 0x06, 0x00, 
	0x08, 0x00, 0x04, 0x00, 0x06, 0x00, 0x00, 0x00, 0x04, 0x00, 0x00, 0x00, 0x00, 0x00, 0x00, 0x00, 0x00, 0x00, 0x0a, 0x00, 
	0x10, 0x00, 0x0c, 0x00, 0x08, 0x00, 0x04, 0x00, 0x0a, 0x00, 0x00, 0x00, 0x02, 0x00, 0x00, 0x00, 0x02, 0x00, 0x00, 0x00, 
	0x04, 0x00, 0x00, 0x00, 0x06, 0x00, 0x00, 0x00, 0x32, 0x2e, 0x31, 0x30, 0x2e, 0x30, 0x00, 0x00, 0x8e, 0xf9, 0xff, 0xff, 
	0x04, 0x00, 0x00, 0x00, 0x10, 0x00, 0x00, 0x00, 0x31, 0x2e, 0x31, 0x34, 0x2e, 0x30, 0x00, 0x00, 0x00, 0x00, 0x00, 0x00, 
	0x00, 0x00, 0x00, 0x00, 0x28, 0xf1, 0xff, 0xff, 0x2c, 0xf1, 0xff, 0xff, 0x30, 0xf1, 0xff, 0xff, 0x34, 0xf1, 0xff, 0xff, 
	0x38, 0xf1, 0xff, 0xff, 0x3c, 0xf1, 0xff, 0xff, 0xc2, 0xf9, 0xff, 0xff, 0x04, 0x00, 0x00, 0x00, 0x00, 0x02, 0x00, 0x00, 
	0x10, 0x0b, 0x2a, 0x3e, 0x62, 0x67, 0x06, 0x3f, 0x48, 0x09, 0xee, 0x3e, 0x00, 0x18, 0x3b, 0x3e, 0x20, 0x9f, 0x18, 0xbd, 
	0xe4, 0x2d, 0x8d, 0xbe, 0x70, 0x20, 0xbc, 0x3e, 0xf2, 0xbf, 0x04, 0xbe, 0x88, 0x5d, 0xbd, 0x3e, 0x7a, 0x57, 0x6e, 0x3e, 
	0xa0, 0x4d, 0x8d, 0x3e, 0x20, 0x2b, 0x51, 0x3e, 0xe0, 0x45, 0x9d, 0x3e, 0xd6, 0xf8, 0xe5, 0xbe, 0xcc, 0x22, 0xd5, 0x3e, 
	0x89, 0x31, 0x54, 0x3e, 0x38, 0x5d, 0xed, 0xbe, 0x8b, 0x2f, 0xf5, 0x3e, 0x08, 0x9f, 0x42, 0x3e, 0xd0, 0x84, 0xf8, 0x3d, 
	0xbc, 0x62, 0xc0, 0x3e, 0xd9, 0x46, 0x65, 0xbe, 0x84, 0x84, 0xb8, 0xbe, 0x1b, 0x4e, 0x39, 0xbe, 0xb0, 0xad, 0x1d, 0xbe, 
	0x89, 0x99, 0x19, 0x3f, 0x70, 0x63, 0x97, 0xbe, 0x50, 0x77, 0x1f, 0x3e, 0x2c, 0xb1, 0xb6, 0xbe, 0xf1, 0x52, 0xbc, 0xbe, 
	0x0c, 0x56, 0xf0, 0x3e, 0xc8, 0x00, 0x9a, 0xbd, 0x68, 0x4f, 0xa9, 0x3e, 0x79, 0xcd, 0xe2, 0xbd, 0x94, 0xa8, 0xdb, 0x3e, 
	0x5c, 0x3a, 0xee, 0xbe, 0xc8, 0x42, 0xa9, 0x3e, 0xb8, 0x3a, 0x6e, 0xbe, 0x80, 0x79, 0xb0, 0xbd, 0x27, 0x0e, 0xfc, 0xbe, 
	0x18, 0xf4, 0x52, 0xbe, 0x07, 0x59, 0xf0, 0xbd, 0x00, 0x34, 0x6e, 0xbd, 0x30, 0x17, 0xcb, 0x3e, 0x6c, 0xc2, 0x91, 0xbe, 
	0x71, 0xc8, 0xb4, 0xbe, 0x38, 0x13, 0x04, 0xbe, 0x61, 0xfb, 0xd3, 0xbe, 0x38, 0x6a, 0x6d, 0x3e, 0x7a, 0xcc, 0x7c, 0xbe, 
	0xa4, 0x4d, 0xba, 0x3e, 0xc0, 0xaa, 0xad, 0x3e, 0xd8, 0x8d, 0x4f, 0x3e, 0xf2, 0xf3, 0x12, 0xbf, 0x80, 0x2f, 0xa0, 0x3e, 
	0x6c, 0x3a, 0x2c, 0xbe, 0x58, 0xbc, 0x3e, 0xbe, 0x5f, 0x2c, 0x7c, 0x3d, 0x50, 0x59, 0x87, 0x3d, 0xc8, 0x58, 0x18, 0xbe, 
	0x00, 0x96, 0xf6, 0xbe, 0x62, 0x4b, 0x83, 0xbe, 0x10, 0xe8, 0xcd, 0xbd, 0xc3, 0xff, 0x15, 0xbf, 0x38, 0xde, 0xdf, 0x3e, 
	0x0b, 0x9c, 0x44, 0xbc, 0xc0, 0x29, 0xfe, 0xbe, 0x80, 0xd9, 0x5f, 0x3c, 0x5c, 0x4d, 0xae, 0x3e, 0xbf, 0xb5, 0xb4, 0xbe, 
	0x60, 0xc7, 0xa2, 0x3e, 0x5c, 0x7f, 0xa1, 0xbe, 0x4c, 0x87, 0xf2, 0xbe, 0xdf, 0x57, 0x17, 0xbe, 0xc8, 0x54, 0x70, 0x3e, 
	0x78, 0x09, 0xe5, 0x3e, 0x48, 0x92, 0x43, 0x3e, 0x79, 0x7a, 0xaa, 0xbe, 0xa4, 0xce, 0xf1, 0xbe, 0xda, 0x68, 0x84, 0xbe, 
	0x78, 0xdd, 0xb9, 0xbe, 0xed, 0xce, 0x57, 0x3e, 0xa8, 0xc9, 0xa2, 0x3e, 0x10, 0xd0, 0x2d, 0xbe, 0x64, 0xbd, 0xa7, 0x3e, 
	0x85, 0xbe, 0x05, 0xbc, 0x80, 0xb0, 0x35, 0xbe, 0xed, 0x25, 0x41, 0xbf, 0x1c, 0x8c, 0xea, 0x3e, 0xde, 0x31, 0x61, 0xbd, 
	0x60, 0xb2, 0x16, 0x3e, 0x9c, 0x9f, 0xae, 0xbe, 0x50, 0x3b, 0x88, 0xbd, 0xb2, 0x15, 0xb4, 0xbe, 0x4c, 0x67, 0xe2, 0x3e, 
	0x38, 0x26, 0x94, 0xbe, 0xe0, 0x7f, 0x7d, 0x3d, 0xac, 0x26, 0x52, 0xbe, 0xbc, 0xa5, 0x9a, 0x3e, 0x54, 0xc0, 0xd6, 0xbe, 
	0x00, 0x79, 0xc1, 0x3d, 0xa9, 0xd7, 0x05, 0xbf, 0x98, 0x97, 0x5c, 0x3e, 0x27, 0x03, 0xcd, 0xbe, 0x00, 0x70, 0x30, 0x3a, 
	0xac, 0xb5, 0xd1, 0xbe, 0xd4, 0xb5, 0x8d, 0x3e, 0x84, 0xff, 0x93, 0x3e, 0x40, 0x77, 0xd7, 0xbe, 0x23, 0x22, 0x0e, 0xbe, 
	0x50, 0xf8, 0x78, 0xbe, 0xe3, 0x2a, 0x15, 0xbf, 0x00, 0x0a, 0xdb, 0xbc, 0x6a, 0xb3, 0x8e, 0xbe, 0x3c, 0xe1, 0xc1, 0xbe, 
	0x00, 0x70, 0x16, 0x3c, 0x60, 0xe7, 0xbf, 0x3d, 0x1a, 0xea, 0xe3, 0xbe, 0xa0, 0xc2, 0x98, 0xbe, 0x61, 0xe1, 0xc4, 0xbe, 
	0x58, 0xd9, 0x2e, 0xbe, 0xd8, 0x1d, 0x69, 0xbe, 0x00, 0x45, 0xb0, 0x3c, 0x68, 0x27, 0x8b, 0xbe, 0xbc, 0x29, 0xaf, 0xbe, 
	0x53, 0xc1, 0xba, 0xbe, 0xb4, 0x42, 0xad, 0x3e, 0xd8, 0x6d, 0xf8, 0xbe, 0xce, 0xfb, 0xff, 0xff, 0x04, 0x00, 0x00, 0x00, 
	0x80, 0x00, 0x00, 0x00, 0xa2, 0x0c, 0xc3, 0x3e, 0x9d, 0xa0, 0x22, 0xbf, 0x83, 0x42, 0x26, 0xbf, 0x7b, 0xa6, 0xce, 0xbe, 
	0x47, 0x93, 0x31, 0xbd, 0x70, 0x60, 0x59, 0x3f, 0x9e, 0x5e, 0xf4, 0x3f, 0x10, 0xb6, 0xa6, 0xbd, 0x80, 0x3f, 0x02, 0xbc, 
	0xc0, 0x51, 0x3f, 0xbe, 0x0a, 0x3e, 0x91, 0x3e, 0x02, 0x1a, 0xa9, 0x3e, 0x35, 0xa1, 0x1c, 0xbf, 0x2e, 0x8f, 0x0f, 0xbf, 
	0xc4, 0x6a, 0x10, 0xbe, 0x80, 0x20, 0x6d, 0xbe, 0xe5, 0x3f, 0x13, 0xbf, 0xe7, 0xfd, 0x07, 0x3f, 0xee, 0x76, 0xeb, 0xbe, 
	0x26, 0xcc, 0x58, 0xbe, 0x33, 0xd4, 0x58, 0x3f, 0x1d, 0x03, 0x24, 0x3f, 0x96, 0x54, 0x09, 0xc0, 0xa0, 0x91, 0xdf, 0x3c, 
	0xff, 0x0d, 0x9e, 0xbe, 0x60, 0xac, 0xb6, 0xbe, 0xd0, 0xf6, 0x8d, 0x3d, 0x0c, 0x05, 0x89, 0x3e, 0x6e, 0xf0, 0x85, 0x3f, 
	0x67, 0xaf, 0x1c, 0x3f, 0x3f, 0xe2, 0x04, 0xbf, 0xa6, 0x68, 0xf6, 0x3e, 0x5a, 0xfc, 0xff, 0xff, 0x04, 0x00, 0x00, 0x00, 
	0x40, 0x00, 0x00, 0x00, 0x68, 0x6e, 0x03, 0x3f, 0xef, 0xf1, 0x86, 0x3f, 0x60, 0xb2, 0xc0, 0xbe, 0x5b, 0xe4, 0x00, 0x3f, 
	0x36, 0x46, 0x1b, 0x3f, 0xb9, 0xa4, 0x7e, 0x3f, 0x35, 0xa7, 0x35, 0x3f, 0x7a, 0xa9, 0xa5, 0xbe, 0x8f, 0x8a, 0xcc, 0x3e, 
	0xb0, 0x4a, 0xda, 0xbd, 0x28, 0x11, 0xe9, 0x3d, 0x12, 0x8c, 0x90, 0xbe, 0x94, 0xce, 0xb6, 0xbe, 0x64, 0xcd, 0xa2, 0xbe, 
	0xd2, 0x55, 0xfb, 0x3e, 0xef, 0x4f, 0x07, 0xbf, 0xa6, 0xfc, 0xff, 0xff, 0x04, 0x00, 0x00, 0x00, 0x80, 0x00, 0x00, 0x00, 
	0x31, 0x5b, 0x89, 0x3f, 0x38, 0x13, 0x79, 0x3e, 0x44, 0xe5, 0xa2, 0x3f, 0x13, 0x71, 0x90, 0x3f, 0x06, 0xa5, 0xdd, 0x3e, 
	0xc8, 0x8d, 0xc4, 0x3e, 0x10, 0xfa, 0x3e, 0x3f, 0xe8, 0x06, 0xeb, 0x3d, 0x7c, 0x4f, 0x51, 0x3f, 0x83, 0x29, 0x04, 0xbf, 
	0x3d, 0x58, 0x02, 0xc0, 0x70, 0x9a, 0xa4, 0x3e, 0xbf, 0x76, 0x24, 0x3f, 0x10, 0xbe, 0x71, 0x3f, 0xe3, 0x03, 0x7a, 0x3f, 
	0x43, 0x8f, 0x14, 0x3f, 0x3e, 0xcb, 0x25, 0xbf, 0xa2, 0x13, 0xff, 0x3e, 0x10, 0x45, 0x85, 0x3e, 0x58, 0x72, 0xc6, 0x3d, 
	0x0a, 0xce, 0x92, 0x3e, 0x40, 0x35, 0x44, 0xbc, 0xb4, 0x68, 0x1a, 0xbf, 0x28, 0xb3, 0xdf, 0x3d, 0xcc, 0x0d, 0xf7, 0xbe, 
	0xab, 0xb1, 0xa3, 0xbe, 0xd0, 0xec, 0x8b, 0xbe, 0x40, 0x1e, 0x2c, 0xbe, 0xa6, 0x5f, 0xe9, 0xbe, 0xf0, 0x25, 0xb4, 0x3d, 
	0xf1, 0x69, 0xd1, 0xbe, 0xa8, 0x83, 0x35, 0xbe, 0x32, 0xfd, 0xff, 0xff, 0x04, 0x00, 0x00, 0x00, 0x00, 0x02, 0x00, 0x00, 
	0xac, 0x41, 0x82, 0x3d, 0x74, 0xfd, 0xc5, 0x3e, 0x13, 0xb3, 0x78, 0x3e, 0xe4, 0xfc, 0xca, 0xbc, 0xe4, 0x71, 0xad, 0xbe, 
	0xd4, 0x94, 0x19, 0x3f, 0xff, 0x16, 0x17, 0x3f, 0x8c, 0x7a, 0x34, 0x3e, 0x60, 0x12, 0x44, 0xbd, 0x93, 0x54, 0x06, 0xbe, 
	0x63, 0xf7, 0xb7, 0x3e, 0x9e, 0x28, 0x58, 0xbe, 0x88, 0x3a, 0x9a, 0xbe, 0x72, 0x61, 0x4c, 0x3f, 0x3f, 0x71, 0xe5, 0xbe, 
	0x7c, 0x18, 0xe7, 0xbe, 0x80, 0xce, 0x13, 0x3c, 0x74, 0xf9, 0xcb, 0xbe, 0x30, 0x77, 0x0e, 0x3e, 0xc0, 0x94, 0x65, 0x3d, 
	0xc0, 0x06, 0xb8, 0xbd, 0xe8, 0x86, 0x74, 0x3e, 0x98, 0x44, 0x0c, 0x3e, 0x18, 0x20, 0xd8, 0x3e, 0xb0, 0x2b, 0xc7, 0xbe, 
	0x18, 0xe9, 0xa5, 0x3e, 0x60, 0xc2, 0xe6, 0xbe, 0xa0, 0xe2, 0x3b, 0x3e, 0x80, 0xf7, 0xf8, 0x3e, 0x60, 0x85, 0xdb, 0x3d, 
	0xc0, 0xe3, 0x4e, 0x3e, 0x50, 0xd4, 0x9a, 0x3d, 0xf9, 0x6b, 0xe7, 0x3e, 0x44, 0xdd, 0xf6, 0x3e, 0x9a, 0xe5, 0x5b, 0x3f, 
	0x61, 0xff, 0x37, 0x3f, 0x61, 0x39, 0x62, 0x3e, 0x3f, 0xb9, 0xf4, 0xbe, 0x15, 0xc1, 0x30, 0x3f, 0xb3, 0x17, 0x77, 0x3f, 
	0x19, 0xa4, 0x52, 0x3d, 0xa8, 0x92, 0xdb, 0xbd, 0x73, 0xa0, 0xd0, 0x3d, 0x23, 0xf1, 0x68, 0x3e, 0xde, 0x4d, 0xa2, 0x3d, 
	0x6d, 0x18, 0x54, 0x3e, 0x3e, 0x0c, 0x5e, 0xbf, 0xcf, 0xe0, 0x3f, 0xbf, 0xe5, 0x32, 0x2a, 0x3f, 0x4e, 0xca, 0x12, 0x3e, 
	0x57, 0x2e, 0x93, 0x3e, 0xa1, 0x34, 0x2e, 0x3f, 0xbb, 0x5a, 0xef, 0x3e, 0xe7, 0x2b, 0x1d, 0x3e, 0xd4, 0x94, 0x02, 0xbd, 
	0xee, 0x4f, 0x90, 0x3e, 0xc2, 0x04, 0x46, 0x3e, 0x76, 0x05, 0x0e, 0x3d, 0x7b, 0xfe, 0x0f, 0x3f, 0x5b, 0x6d, 0x68, 0x3e, 
	0xd3, 0x79, 0x33, 0xbe, 0x0e, 0x93, 0x62, 0x3f, 0xd3, 0xe8, 0x97, 0x3e, 0xfa, 0xa8, 0x11, 0xbf, 0x62, 0xed, 0x71, 0xbe, 
	0xbb, 0x8b, 0x93, 0xbe, 0xf6, 0x50, 0x33, 0xbf, 0x7a, 0x0d, 0xe0, 0x3d, 0xb6, 0x7c, 0x35, 0xbf, 0x7a, 0x26, 0xa2, 0x3e, 
	0xff, 0xe2, 0x63, 0xbf, 0x96, 0x8e, 0xc4, 0x3e, 0xe8, 0x1c, 0x48, 0xbf, 0x1c, 0xf9, 0xe5, 0xbc, 0xc1, 0x8b, 0xae, 0xbf, 
	0xa3, 0x27, 0xee, 0xbe, 0x01, 0x39, 0x23, 0xbf, 0x46, 0x20, 0xd5, 0xbd, 0x45, 0x81, 0xbd, 0x3e, 0x90, 0xc4, 0xa0, 0x3e, 
	0x14, 0x98, 0x2d, 0x3e, 0x8a, 0x4e, 0x98, 0x3e, 0x21, 0xc1, 0x25, 0xbe, 0x27, 0x17, 0xb1, 0x3e, 0xa7, 0x46, 0xc0, 0x3e, 
	0x6b, 0x09, 0xc7, 0x3e, 0xec, 0x33, 0x84, 0xbe, 0x72, 0x4a, 0x8e, 0x3d, 0x24, 0x89, 0xc9, 0x3b, 0x11, 0xba, 0xec, 0xbe, 
	0x31, 0x2f, 0x75, 0xbf, 0x82, 0xda, 0x2d, 0xbf, 0xa0, 0xbf, 0x17, 0xbf, 0x99, 0x54, 0xf3, 0x3c, 0xf0, 0xc6, 0x48, 0x3f, 
	0xb5, 0xe0, 0x3e, 0x3f, 0xa4, 0x6d, 0x0e, 0x3d, 0x85, 0x04, 0xa8, 0x3d, 0xc3, 0xa2, 0xc0, 0xbd, 0xb2, 0xec, 0xb2, 0x3e, 
	0x52, 0x96, 0xde, 0x3d, 0xd5, 0xd6, 0x02, 0x3f, 0xed, 0x44, 0x21, 0xbf, 0x46, 0x79, 0xf6, 0xbc, 0xc3, 0x63, 0x62, 0xbe, 
	0x59, 0x3c, 0x84, 0xbd, 0x65, 0xf2, 0x9f, 0xbe, 0xb5, 0xf6, 0xff, 0x3d, 0xed, 0xc4, 0xa7, 0xbe, 0xf9, 0xc8, 0x9e, 0xbe, 
	0x73, 0xc8, 0xfc, 0xbe, 0xf3, 0xb3, 0xf9, 0x3e, 0x80, 0xe3, 0x89, 0xbd, 0x50, 0xa0, 0x22, 0x3e, 0x90, 0x70, 0x2d, 0xbe, 
	0xcc, 0x7c, 0x97, 0xbe, 0x24, 0x20, 0xea, 0x3e, 0xf0, 0x44, 0x8d, 0x3e, 0xac, 0xbb, 0xf6, 0x3e, 0x84, 0x06, 0xca, 0xbe, 
	0x4c, 0xda, 0xf0, 0xbe, 0x78, 0x5e, 0x19, 0xbe, 0xc0, 0xbe, 0xcd, 0xbd, 0x40, 0xd1, 0xaa, 0xbd, 0xf0, 0xac, 0xc0, 0x3d, 
	0x88, 0xee, 0x18, 0xbe, 0x60, 0x64, 0xdb, 0x3e, 0x38, 0x89, 0x94, 0x3e, 0x3e, 0xff, 0xff, 0xff, 0x04, 0x00, 0x00, 0x00, 
	0x20, 0x00, 0x00, 0x00, 0x7c, 0xfe, 0x11, 0x3f, 0x00, 0x00, 0x00, 0x00, 0xfa, 0xab, 0xb9, 0xbe, 0x80, 0xc3, 0xd3, 0x3e, 
	0x13, 0x3a, 0x4a, 0x3f, 0x05, 0xc3, 0x1c, 0x3f, 0xb4, 0x34, 0x1d, 0x3f, 0x00, 0x00, 0x00, 0x00, 0x6a, 0xff, 0xff, 0xff, 
	0x04, 0x00, 0x00, 0x00, 0x40, 0x00, 0x00, 0x00, 0x73, 0xc3, 0xd9, 0xbd, 0xe4, 0xc8, 0xda, 0xbe, 0x5d, 0xb5, 0x06, 0xbe, 
	0x47, 0x5a, 0xb8, 0xbe, 0x49, 0x08, 0xa1, 0xbe, 0x6c, 0x00, 0x03, 0xbe, 0x2c, 0xd6, 0x25, 0xbe, 0x89, 0x1b, 0x52, 0xbe, 
	0x03, 0x44, 0x9b, 0xbe, 0xde, 0xd0, 0xd8, 0xbe, 0xfc, 0x1a, 0x55, 0xbe, 0x9a, 0xa2, 0xb9, 0xbe, 0xca, 0xf5, 0x6b, 0xbe, 
	0xc0, 0x1e, 0x1f, 0xbe, 0x95, 0x7f, 0x0a, 0xbe, 0x94, 0x6c, 0x3c, 0xbe, 0xb6, 0xff, 0xff, 0xff, 0x04, 0x00, 0x00, 0x00, 
	0x20, 0x00, 0x00, 0x00, 0x00, 0x00, 0x00, 0x00, 0x07, 0x6f, 0xb8, 0xbe, 0x00, 0x00, 0x00, 0x00, 0x00, 0x00, 0x00, 0x00, 
	0x00, 0x00, 0x00, 0x00, 0xbf, 0xa3, 0x0e, 0x3f, 0x00, 0x00, 0x00, 0x00, 0xd9, 0x32, 0x86, 0x3e, 0xe2, 0xff, 0xff, 0xff, 
	0x04, 0x00, 0x00, 0x00, 0x10, 0x00, 0x00, 0x00, 0x35, 0x9c, 0xde, 0x3e, 0x6b, 0x3d, 0x92, 0x3e, 0xd5, 0x48, 0x45, 0xbf, 
	0x00, 0x00, 0x00, 0x00, 0x00, 0x00, 0x06, 0x00, 0x08, 0x00, 0x04, 0x00, 0x06, 0x00, 0x00, 0x00, 0x04, 0x00, 0x00, 0x00, 
	0x10, 0x00, 0x00, 0x00, 0x1c, 0x1a, 0x40, 0x3e, 0xd9, 0xa5, 0x00, 0x3f, 0x00, 0x00, 0x00, 0x00, 0x00, 0x00, 0x00, 0x00, 
	0xa0, 0xf7, 0xff, 0xff, 0xa4, 0xf7, 0xff, 0xff, 0x0f, 0x00, 0x00, 0x00, 0x4d, 0x4c, 0x49, 0x52, 0x20, 0x43, 0x6f, 0x6e, 
	0x76, 0x65, 0x72, 0x74, 0x65, 0x64, 0x2e, 0x00, 0x01, 0x00, 0x00, 0x00, 0x14, 0x00, 0x00, 0x00, 0x00, 0x00, 0x0e, 0x00, 
	0x18, 0x00, 0x14, 0x00, 0x10, 0x00, 0x0c, 0x00, 0x08, 0x00, 0x04, 0x00, 0x0e, 0x00, 0x00, 0x00, 0x14, 0x00, 0x00, 0x00, 
	0x1c, 0x00, 0x00, 0x00, 0x78, 0x01, 0x00, 0x00, 0x7c, 0x01, 0x00, 0x00, 0x80, 0x01, 0x00, 0x00, 0x04, 0x00, 0x00, 0x00, 
	0x6d, 0x61, 0x69, 0x6e, 0x00, 0x00, 0x00, 0x00, 0x06, 0x00, 0x00, 0x00, 0x20, 0x01, 0x00, 0x00, 0xd8, 0x00, 0x00, 0x00, 
	0xa0, 0x00, 0x00, 0x00, 0x68, 0x00, 0x00, 0x00, 0x34, 0x00, 0x00, 0x00, 0x10, 0x00, 0x00, 0x00, 0x00, 0x00, 0x0a, 0x00, 
	0x10, 0x00, 0x0c, 0x00, 0x08, 0x00, 0x04, 0x00, 0x0a, 0x00, 0x00, 0x00, 0x0c, 0x00, 0x00, 0x00, 0x10, 0x00, 0x00, 0x00, 
	0x01, 0x00, 0x00, 0x00, 0x01, 0x00, 0x00, 0x00, 0x10, 0x00, 0x00, 0x00, 0x01, 0x00, 0x00, 0x00, 0x0f, 0x00, 0x00, 0x00, 
	0x32, 0xff, 0xff, 0xff, 0x10, 0x00, 0x00, 0x00, 0x00, 0x00, 0x00, 0x08, 0x0c, 0x00, 0x00, 0x00, 0x10, 0x00, 0x00, 0x00, 
	0x54, 0xf8, 0xff, 0xff, 0x01, 0x00, 0x00, 0x00, 0x0f, 0x00, 0x00, 0x00, 0x03, 0x00, 0x00, 0x00, 0x0e, 0x00, 0x00, 0x00, 
	0x0a, 0x00, 0x00, 0x00, 0x04, 0x00, 0x00, 0x00, 0x62, 0xff, 0xff, 0xff, 0x10, 0x00, 0x00, 0x00, 0x00, 0x00, 0x00, 0x08, 
	0x10, 0x00, 0x00, 0x00, 0x14, 0x00, 0x00, 0x00, 0x52, 0xff, 0xff, 0xff, 0x00, 0x00, 0x00, 0x01, 0x01, 0x00, 0x00, 0x00, 
	0x0e, 0x00, 0x00, 0x00, 0x03, 0x00, 0x00, 0x00, 0x0d, 0x00, 0x00, 0x00, 0x09, 0x00, 0x00, 0x00, 0x03, 0x00, 0x00, 0x00, 
	0x96, 0xff, 0xff, 0xff, 0x10, 0x00, 0x00, 0x00, 0x00, 0x00, 0x00, 0x08, 0x10, 0x00, 0x00, 0x00, 0x14, 0x00, 0x00, 0x00, 
	0x86, 0xff, 0xff, 0xff, 0x00, 0x00, 0x00, 0x01, 0x01, 0x00, 0x00, 0x00, 0x0d, 0x00, 0x00, 0x00, 0x03, 0x00, 0x00, 0x00, 
	0x0c, 0x00, 0x00, 0x00, 0x08, 0x00, 0x00, 0x00, 0x02, 0x00, 0x00, 0x00, 0xca, 0xff, 0xff, 0xff, 0x10, 0x00, 0x00, 0x00, 
	0x00, 0x00, 0x00, 0x08, 0x10, 0x00, 0x00, 0x00, 0x14, 0x00, 0x00, 0x00, 0xba, 0xff, 0xff, 0xff, 0x00, 0x00, 0x00, 0x01, 
	0x01, 0x00, 0x00, 0x00, 0x0c, 0x00, 0x00, 0x00, 0x03, 0x00, 0x00, 0x00, 0x0b, 0x00, 0x00, 0x00, 0x07, 0x00, 0x00, 0x00, 
	0x01, 0x00, 0x00, 0x00, 0x00, 0x00, 0x0e, 0x00, 0x16, 0x00, 0x00, 0x00, 0x10, 0x00, 0x0c, 0x00, 0x0b, 0x00, 0x04, 0x00, 
	0x0e, 0x00, 0x00, 0x00, 0x18, 0x00, 0x00, 0x00, 0x00, 0x00, 0x00, 0x08, 0x18, 0x00, 0x00, 0x00, 0x1c, 0x00, 0x00, 0x00, 
	0x00, 0x00, 0x06, 0x00, 0x08, 0x00, 0x07, 0x00, 0x06, 0x00, 0x00, 0x00, 0x00, 0x00, 0x00, 0x01, 0x01, 0x00, 0x00, 0x00, 
	0x0b, 0x00, 0x00, 0x00, 0x03, 0x00, 0x00, 0x00, 0x00, 0x00, 0x00, 0x00, 0x06, 0x00, 0x00, 0x00, 0x05, 0x00, 0x00, 0x00, 
	0x01, 0x00, 0x00, 0x00, 0x10, 0x00, 0x00, 0x00, 0x01, 0x00, 0x00, 0x00, 0x00, 0x00, 0x00, 0x00, 0x11, 0x00, 0x00, 0x00, 
	0x6c, 0x06, 0x00, 0x00, 0xfc, 0x05, 0x00, 0x00, 0x8c, 0x05, 0x00, 0x00, 0x34, 0x05, 0x00, 0x00, 0xdc, 0x04, 0x00, 0x00, 
	0x88, 0x04, 0x00, 0x00, 0x40, 0x04, 0x00, 0x00, 0xf4, 0x03, 0x00, 0x00, 0xa8, 0x03, 0x00, 0x00, 0x5c, 0x03, 0x00, 0x00, 
	0x10, 0x03, 0x00, 0x00, 0x88, 0x02, 0x00, 0x00, 0xf8, 0x01, 0x00, 0x00, 0x68, 0x01, 0x00, 0x00, 0xd8, 0x00, 0x00, 0x00, 
	0x60, 0x00, 0x00, 0x00, 0x04, 0x00, 0x00, 0x00, 0xee, 0xf9, 0xff, 0xff, 0x00, 0x00, 0x00, 0x01, 0x14, 0x00, 0x00, 0x00, 
	0x1c, 0x00, 0x00, 0x00, 0x1c, 0x00, 0x00, 0x00, 0x11, 0x00, 0x00, 0x00, 0x34, 0x00, 0x00, 0x00, 0x02, 0x00, 0x00, 0x00, 
	0xff, 0xff, 0xff, 0xff, 0x10, 0x00, 0x00, 0x00, 0xd8, 0xf9, 0xff, 0xff, 0x19, 0x00, 0x00, 0x00, 0x53, 0x74, 0x61, 0x74, 
	0x65, 0x66, 0x75, 0x6c, 0x50, 0x61, 0x72, 0x74, 0x69, 0x74, 0x69, 0x6f, 0x6e, 0x65, 0x64, 0x43, 0x61, 0x6c, 0x6c, 0x3a, 
	0x30, 0x00, 0x00, 0x00, 0x02, 0x00, 0x00, 0x00, 0x01, 0x00, 0x00, 0x00, 0x10, 0x00, 0x00, 0x00, 0x46, 0xfa, 0xff, 0xff, 
	0x00, 0x00, 0x00, 0x01, 0x14, 0x00, 0x00, 0x00, 0x1c, 0x00, 0x00, 0x00, 0x1c, 0x00, 0x00, 0x00, 0x10, 0x00, 0x00, 0x00, 
	0x50, 0x00, 0x00, 0x00, 0x02, 0x00, 0x00, 0x00, 0xff, 0xff, 0xff, 0xff, 0x10, 0x00, 0x00, 0x00, 0x30, 0xfa, 0xff, 0xff, 
	0x34, 0x00, 0x00, 0x00, 0x73, 0x65, 0x71, 0x75, 0x65, 0x6e, 0x74, 0x69, 0x61, 0x6c, 0x2f, 0x64, 0x65, 0x6e, 0x73, 0x65, 
	0x5f, 0x34, 0x2f, 0x4d, 0x61, 0x74, 0x4d, 0x75, 0x6c, 0x3b, 0x73, 0x65, 0x71, 0x75, 0x65, 0x6e, 0x74, 0x69, 0x61, 0x6c, 
	0x2f, 0x64, 0x65, 0x6e, 0x73, 0x65, 0x5f, 0x34, 0x2f, 0x42, 0x69, 0x61, 0x73, 0x41, 0x64, 0x64, 0x00, 0x00, 0x00, 0x00, 
	0x02, 0x00, 0x00, 0x00, 0x01, 0x00, 0x00, 0x00, 0x10, 0x00, 0x00, 0x00, 0xba, 0xfa, 0xff, 0xff, 0x00, 0x00, 0x00, 0x01, 
	0x14, 0x00, 0x00, 0x00, 0x1c, 0x00, 0x00, 0x00, 0x1c, 0x00, 0x00, 0x00, 0x0f, 0x00, 0x00, 0x00, 0x68, 0x00, 0x00, 0x00, 
	0x02, 0x00, 0x00, 0x00, 0xff, 0xff, 0xff, 0xff, 0x08, 0x00, 0x00, 0x00, 0xa4, 0xfa, 0xff, 0xff, 0x4c, 0x00, 0x00, 0x00, 
	0x73, 0x65, 0x71, 0x75, 0x65, 0x6e, 0x74, 0x69, 0x61, 0x6c, 0x2f, 0x64, 0x65, 0x6e, 0x73, 0x65, 0x5f, 0x33, 0x2f, 0x4d, 
	0x61, 0x74, 0x4d, 0x75, 0x6c, 0x3b, 0x73, 0x65, 0x71, 0x75, 0x65, 0x6e, 0x74, 0x69, 0x61, 0x6c, 0x2f, 0x64, 0x65, 0x6e, 
	0x73, 0x65, 0x5f, 0x33, 0x2f, 0x52, 0x65, 0x6c, 0x75, 0x3b, 0x73, 0x65, 0x71, 0x75, 0x65, 0x6e, 0x74, 0x69, 0x61, 0x6c, 
	0x2f, 0x64, 0x65, 0x6e, 0x73, 0x65, 0x5f, 0x33, 0x2f, 0x42, 0x69, 0x61, 0x73, 0x41, 0x64, 0x64, 0x00, 0x00, 0x00, 0x00, 
	0x02, 0x00, 0x00, 0x00, 0x01, 0x00, 0x00, 0x00, 0x08, 0x00, 0x00, 0x00, 0x46, 0xfb, 0xff, 0xff, 0x00, 0x00, 0x00, 0x01, 
	0x14, 0x00, 0x00, 0x00, 0x1c, 0x00, 0x00, 0x00, 0x1c, 0x00, 0x00, 0x00, 0x0e, 0x00, 0x00, 0x00, 0x68, 0x00, 0x00, 0x00, 
	0x02, 0x00, 0x00, 0x00, 0xff, 0xff, 0xff, 0xff, 0x04, 0x00, 0x00, 0x00, 0x30, 0xfb, 0xff, 0xff, 0x4c, 0x00, 0x00, 0x00, 
	0x73, 0x65, 0x71, 0x75, 0x65, 0x6e, 0x74, 0x69, 0x61, 0x6c, 0x2f, 0x64, 0x65, 0x6e, 0x73, 0x65, 0x5f, 0x32, 0x2f, 0x4d, 
	0x61, 0x74, 0x4d, 0x75, 0x6c, 0x3b, 0x73, 0x65, 0x71, 0x75, 0x65, 0x6e, 0x74, 0x69, 0x61, 0x6c, 0x2f, 0x64, 0x65, 0x6e, 
	0x73, 0x65, 0x5f, 0x32, 0x2f, 0x52, 0x65, 0x6c, 0x75, 0x3b, 0x73, 0x65, 0x71, 0x75, 0x65, 0x6e, 0x74, 0x69, 0x61, 0x6c, 
	0x2f, 0x64, 0x65, 0x6e, 0x73, 0x65, 0x5f, 0x32, 0x2f, 0x42, 0x69, 0x61, 0x73, 0x41, 0x64, 0x64, 0x00, 0x00, 0x00, 0x00, 
	0x02, 0x00, 0x00, 0x00, 0x01, 0x00, 0x00, 0x00, 0x04, 0x00, 0x00, 0x00, 0xd2, 0xfb, 0xff, 0xff, 0x00, 0x00, 0x00, 0x01, 
	0x14, 0x00, 0x00, 0x00, 0x1c, 0x00, 0x00, 0x00, 0x1c, 0x00, 0x00, 0x00, 0x0d, 0x00, 0x00, 0x00, 0x68, 0x00, 0x00, 0x00, 
	0x02, 0x00, 0x00, 0x00, 0xff, 0xff, 0xff, 0xff, 0x04, 0x00, 0x00, 0x00, 0xbc, 0xfb, 0xff, 0xff, 0x4c, 0x00, 0x00, 0x00, 
	0x73, 0x65, 0x71, 0x75, 0x65, 0x6e, 0x74, 0x69, 0x61, 0x6c, 0x2f, 0x64, 0x65, 0x6e, 0x73, 0x65, 0x5f, 0x31, 0x2f, 0x4d, 
	0x61, 0x74, 0x4d, 0x75, 0x6c, 0x3b, 0x73, 0x65, 0x71, 0x75, 0x65, 0x6e, 0x74, 0x69, 0x61, 0x6c, 0x2f, 0x64, 0x65, 0x6e, 
	0x73, 0x65, 0x5f, 0x31, 0x2f, 0x52, 0x65, 0x6c, 0x75, 0x3b, 0x73, 0x65, 0x71, 0x75, 0x65, 0x6e, 0x74, 0x69, 0x61, 0x6c, 
	0x2f, 0x64, 0x65, 0x6e, 0x73, 0x65, 0x5f, 0x31, 0x2f, 0x42, 0x69, 0x61, 0x73, 0x41, 0x64, 0x64, 0x00, 0x00, 0x00, 0x00, 
	0x02, 0x00, 0x00, 0x00, 0x01, 0x00, 0x00, 0x00, 0x04, 0x00, 0x00, 0x00, 0x5e, 0xfc, 0xff, 0xff, 0x00, 0x00, 0x00, 0x01, 
	0x14, 0x00, 0x00, 0x00, 0x1c, 0x00, 0x00, 0x00, 0x1c, 0x00, 0x00, 0x00, 0x0c, 0x00, 0x00, 0x00, 0x60, 0x00, 0x00, 0x00, 
	0x02, 0x00, 0x00, 0x00, 0xff, 0xff, 0xff, 0xff, 0x08, 0x00, 0x00, 0x00, 0x48, 0xfc, 0xff, 0xff, 0x46, 0x00, 0x00, 0x00, 
	0x73, 0x65, 0x71, 0x75, 0x65, 0x6e, 0x74, 0x69, 0x61, 0x6c, 0x2f, 0x64, 0x65, 0x6e, 0x73, 0x65, 0x2f, 0x4d, 0x61, 0x74, 
	0x4d, 0x75, 0x6c, 0x3b, 0x73, 0x65, 0x71, 0x75, 0x65, 0x6e, 0x74, 0x69, 0x61, 0x6c, 0x2f, 0x64, 0x65, 0x6e, 0x73, 0x65, 
	0x2f, 0x52, 0x65, 0x6c, 0x75, 0x3b, 0x73, 0x65, 0x71, 0x75, 0x65, 0x6e, 0x74, 0x69, 0x61, 0x6c, 0x2f, 0x64, 0x65, 0x6e, 
	0x73, 0x65, 0x2f, 0x42, 0x69, 0x61, 0x73, 0x41, 0x64, 0x64, 0x00, 0x00, 0x02, 0x00, 0x00, 0x00, 0x01, 0x00, 0x00, 0x00, 
	0x08, 0x00, 0x00, 0x00, 0x4e, 0xfd, 0xff, 0xff, 0x00, 0x00, 0x00, 0x01, 0x10, 0x00, 0x00, 0x00, 0x10, 0x00, 0x00, 0x00, 
	0x0b, 0x00, 0x00, 0x00, 0x28, 0x00, 0x00, 0x00, 0xbc, 0xfc, 0xff, 0xff, 0x19, 0x00, 0x00, 0x00, 0x73, 0x65, 0x71, 0x75, 
	0x65, 0x6e, 0x74, 0x69, 0x61, 0x6c, 0x2f, 0x64, 0x65, 0x6e, 0x73, 0x65, 0x5f, 0x34, 0x2f, 0x4d, 0x61, 0x74, 0x4d, 0x75, 
	0x6c, 0x00, 0x00, 0x00, 0x02, 0x00, 0x00, 0x00, 0x10, 0x00, 0x00, 0x00, 0x08, 0x00, 0x00, 0x00, 0x96, 0xfd, 0xff, 0xff, 
	0x00, 0x00, 0x00, 0x01, 0x10, 0x00, 0x00, 0x00, 0x10, 0x00, 0x00, 0x00, 0x0a, 0x00, 0x00, 0x00, 0x28, 0x00, 0x00, 0x00, 
	0x04, 0xfd, 0xff, 0xff, 0x19, 0x00, 0x00, 0x00, 0x73, 0x65, 0x71, 0x75, 0x65, 0x6e, 0x74, 0x69, 0x61, 0x6c, 0x2f, 0x64, 
	0x65, 0x6e, 0x73, 0x65, 0x5f, 0x33, 0x2f, 0x4d, 0x61, 0x74, 0x4d, 0x75, 0x6c, 0x00, 0x00, 0x00, 0x02, 0x00, 0x00, 0x00, 
	0x08, 0x00, 0x00, 0x00, 0x04, 0x00, 0x00, 0x00, 0xde, 0xfd, 0xff, 0xff, 0x00, 0x00, 0x00, 0x01, 0x10, 0x00, 0x00, 0x00, 
	0x10, 0x00, 0x00, 0x00, 0x09, 0x00, 0x00, 0x00, 0x28, 0x00, 0x00, 0x00, 0x4c, 0xfd, 0xff, 0xff, 0x19, 0x00, 0x00, 0x00, 
	0x73, 0x65, 0x71, 0x75, 0x65, 0x6e, 0x74, 0x69, 0x61, 0x6c, 0x2f, 0x64, 0x65, 0x6e, 0x73, 0x65, 0x5f, 0x32, 0x2f, 0x4d, 
	0x61, 0x74, 0x4d, 0x75, 0x6c, 0x00, 0x00, 0x00, 0x02, 0x00, 0x00, 0x00, 0x04, 0x00, 0x00, 0x00, 0x04, 0x00, 0x00, 0x00, 
	0x26, 0xfe, 0xff, 0xff, 0x00, 0x00, 0x00, 0x01, 0x10, 0x00, 0x00, 0x00, 0x10, 0x00, 0x00, 0x00, 0x08, 0x00, 0x00, 0x00, 
	0x28, 0x00, 0x00, 0x00, 0x94, 0xfd, 0xff, 0xff, 0x19, 0x00, 0x00, 0x00, 0x73, 0x65, 0x71, 0x75, 0x65, 0x6e, 0x74, 0x69, 
	0x61, 0x6c, 0x2f, 0x64, 0x65, 0x6e, 0x73, 0x65, 0x5f, 0x31, 0x2f, 0x4d, 0x61, 0x74, 0x4d, 0x75, 0x6c, 0x00, 0x00, 0x00, 
	0x02, 0x00, 0x00, 0x00, 0x04, 0x00, 0x00, 0x00, 0x08, 0x00, 0x00, 0x00, 0x6e, 0xfe, 0xff, 0xff, 0x00, 0x00, 0x00, 0x01, 
	0x10, 0x00, 0x00, 0x00, 0x10, 0x00, 0x00, 0x00, 0x07, 0x00, 0x00, 0x00, 0x24, 0x00, 0x00, 0x00, 0xdc, 0xfd, 0xff, 0xff, 
	0x17, 0x00, 0x00, 0x00, 0x73, 0x65, 0x71, 0x75, 0x65, 0x6e, 0x74, 0x69, 0x61, 0x6c, 0x2f, 0x64, 0x65, 0x6e, 0x73, 0x65, 
	0x2f, 0x4d, 0x61, 0x74, 0x4d, 0x75, 0x6c, 0x00, 0x02, 0x00, 0x00, 0x00, 0x08, 0x00, 0x00, 0x00, 0x10, 0x00, 0x00, 0x00, 
	0xb2, 0xfe, 0xff, 0xff, 0x00, 0x00, 0x00, 0x01, 0x10, 0x00, 0x00, 0x00, 0x10, 0x00, 0x00, 0x00, 0x06, 0x00, 0x00, 0x00, 
	0x34, 0x00, 0x00, 0x00, 0x20, 0xfe, 0xff, 0xff, 0x27, 0x00, 0x00, 0x00, 0x73, 0x65, 0x71, 0x75, 0x65, 0x6e, 0x74, 0x69, 
	0x61, 0x6c, 0x2f, 0x64, 0x65, 0x6e, 0x73, 0x65, 0x2f, 0x42, 0x69, 0x61, 0x73, 0x41, 0x64, 0x64, 0x2f, 0x52, 0x65, 0x61, 
	0x64, 0x56, 0x61, 0x72, 0x69, 0x61, 0x62, 0x6c, 0x65, 0x4f, 0x70, 0x00, 0x01, 0x00, 0x00, 0x00, 0x08, 0x00, 0x00, 0x00, 
	0x02, 0xff, 0xff, 0xff, 0x00, 0x00, 0x00, 0x01, 0x10, 0x00, 0x00, 0x00, 0x10, 0x00, 0x00, 0x00, 0x05, 0x00, 0x00, 0x00, 
	0x38, 0x00, 0x00, 0x00, 0x70, 0xfe, 0xff, 0xff, 0x29, 0x00, 0x00, 0x00, 0x73, 0x65, 0x71, 0x75, 0x65, 0x6e, 0x74, 0x69, 
	0x61, 0x6c, 0x2f, 0x64, 0x65, 0x6e, 0x73, 0x65, 0x5f, 0x34, 0x2f, 0x42, 0x69, 0x61, 0x73, 0x41, 0x64, 0x64, 0x2f, 0x52, 
	0x65, 0x61, 0x64, 0x56, 0x61, 0x72, 0x69, 0x61, 0x62, 0x6c, 0x65, 0x4f, 0x70, 0x00, 0x00, 0x00, 0x01, 0x00, 0x00, 0x00, 
	0x10, 0x00, 0x00, 0x00, 0x56, 0xff, 0xff, 0xff, 0x00, 0x00, 0x00, 0x01, 0x10, 0x00, 0x00, 0x00, 0x10, 0x00, 0x00, 0x00, 
	0x04, 0x00, 0x00, 0x00, 0x38, 0x00, 0x00, 0x00, 0xc4, 0xfe, 0xff, 0xff, 0x29, 0x00, 0x00, 0x00, 0x73, 0x65, 0x71, 0x75, 
	0x65, 0x6e, 0x74, 0x69, 0x61, 0x6c, 0x2f, 0x64, 0x65, 0x6e, 0x73, 0x65, 0x5f, 0x33, 0x2f, 0x42, 0x69, 0x61, 0x73, 0x41, 
	0x64, 0x64, 0x2f, 0x52, 0x65, 0x61, 0x64, 0x56, 0x61, 0x72, 0x69, 0x61, 0x62, 0x6c, 0x65, 0x4f, 0x70, 0x00, 0x00, 0x00, 
	0x01, 0x00, 0x00, 0x00, 0x08, 0x00, 0x00, 0x00, 0xaa, 0xff, 0xff, 0xff, 0x00, 0x00, 0x00, 0x01, 0x10, 0x00, 0x00, 0x00, 
	0x10, 0x00, 0x00, 0x00, 0x03, 0x00, 0x00, 0x00, 0x38, 0x00, 0x00, 0x00, 0x18, 0xff, 0xff, 0xff, 0x29, 0x00, 0x00, 0x00, 
	0x73, 0x65, 0x71, 0x75, 0x65, 0x6e, 0x74, 0x69, 0x61, 0x6c, 0x2f, 0x64, 0x65, 0x6e, 0x73, 0x65, 0x5f, 0x32, 0x2f, 0x42, 
	0x69, 0x61, 0x73, 0x41, 0x64, 0x64, 0x2f, 0x52, 0x65, 0x61, 0x64, 0x56, 0x61, 0x72, 0x69, 0x61, 0x62, 0x6c, 0x65, 0x4f, 
	0x70, 0x00, 0x00, 0x00, 0x01, 0x00, 0x00, 0x00, 0x04, 0x00, 0x00, 0x00, 0x00, 0x00, 0x16, 0x00, 0x18, 0x00, 0x14, 0x00, 
	0x00, 0x00, 0x10, 0x00, 0x0c, 0x00, 0x08, 0x00, 0x00, 0x00, 0x00, 0x00, 0x00, 0x00, 0x07, 0x00, 0x16, 0x00, 0x00, 0x00, 
	0x00, 0x00, 0x00, 0x01, 0x10, 0x00, 0x00, 0x00, 0x10, 0x00, 0x00, 0x00, 0x02, 0x00, 0x00, 0x00, 0x38, 0x00, 0x00, 0x00, 
	0x84, 0xff, 0xff, 0xff, 0x29, 0x00, 0x00, 0x00, 0x73, 0x65, 0x71, 0x75, 0x65, 0x6e, 0x74, 0x69, 0x61, 0x6c, 0x2f, 0x64, 
	0x65, 0x6e, 0x73, 0x65, 0x5f, 0x31, 0x2f, 0x42, 0x69, 0x61, 0x73, 0x41, 0x64, 0x64, 0x2f, 0x52, 0x65, 0x61, 0x64, 0x56, 
	0x61, 0x72, 0x69, 0x61, 0x62, 0x6c, 0x65, 0x4f, 0x70, 0x00, 0x00, 0x00, 0x01, 0x00, 0x00, 0x00, 0x04, 0x00, 0x00, 0x00, 
	0x00, 0x00, 0x16, 0x00, 0x1c, 0x00, 0x18, 0x00, 0x00, 0x00, 0x14, 0x00, 0x10, 0x00, 0x0c, 0x00, 0x00, 0x00, 0x00, 0x00, 
	0x08, 0x00, 0x07, 0x00, 0x16, 0x00, 0x00, 0x00, 0x00, 0x00, 0x00, 0x01, 0x14, 0x00, 0x00, 0x00, 0x20, 0x00, 0x00, 0x00, 
	0x20, 0x00, 0x00, 0x00, 0x01, 0x00, 0x00, 0x00, 0x38, 0x00, 0x00, 0x00, 0x02, 0x00, 0x00, 0x00, 0xff, 0xff, 0xff, 0xff, 
	0x10, 0x00, 0x00, 0x00, 0x04, 0x00, 0x04, 0x00, 0x04, 0x00, 0x00, 0x00, 0x19, 0x00, 0x00, 0x00, 0x73, 0x65, 0x72, 0x76, 
	0x69, 0x6e, 0x67, 0x5f, 0x64, 0x65, 0x66, 0x61, 0x75, 0x6c, 0x74, 0x5f, 0x69, 0x6e, 0x70, 0x75, 0x74, 0x5f, 0x31, 0x3a, 
	0x30, 0x00, 0x00, 0x00, 0x02, 0x00, 0x00, 0x00, 0x01, 0x00, 0x00, 0x00, 0x10, 0x00, 0x00, 0x00, 0x02, 0x00, 0x00, 0x00, 
	0x20, 0x00, 0x00, 0x00, 0x04, 0x00, 0x00, 0x00, 0xf4, 0xff, 0xff, 0xff, 0x0e, 0x00, 0x00, 0x00, 0x00, 0x00, 0x00, 0x0e, 
	0x0c, 0x00, 0x0c, 0x00, 0x0b, 0x00, 0x00, 0x00, 0x00, 0x00, 0x04, 0x00, 0x0c, 0x00, 0x00, 0x00, 0x09, 0x00, 0x00, 0x00, 
	0x00, 0x00, 0x00, 0x09};


const uint8_t * GetModelPointer()
{
    return g_Model;
}

size_t GetModelLen()
{
    return sizeof(g_Model);
}


const float GetThreshold()
{
    return 0.009218703024089336;
}                    
                    
const float GetMaxValTrain()
{
    return 3158.1043774;
}

const uint8_t GetFrameLenSample()
{
    return 300;
}

const float GetMinValTrain()
{
    return -0.619863934954322;
}

