#include <cstdint>
#include <cstddef>
#include "BufAttributes.h"

static const uint8_t g_Model[] ALIGNMENT_ATTRIBUTE =  {
	0x1c, 0x00, 0x00, 0x00, 0x54, 0x46, 0x4c, 0x33, 0x14, 0x00, 0x20, 0x00, 0x1c, 0x00, 0x18, 0x00, 0x14, 0x00, 0x10, 0x00, 
	0x0c, 0x00, 0x00, 0x00, 0x08, 0x00, 0x04, 0x00, 0x14, 0x00, 0x00, 0x00, 0x1c, 0x00, 0x00, 0x00, 0x94, 0x00, 0x00, 0x00, 
	0xec, 0x00, 0x00, 0x00, 0xa8, 0x08, 0x00, 0x00, 0xb8, 0x08, 0x00, 0x00, 0x20, 0x11, 0x00, 0x00, 0x03, 0x00, 0x00, 0x00, 
	0x01, 0x00, 0x00, 0x00, 0x10, 0x00, 0x00, 0x00, 0x00, 0x00, 0x0a, 0x00, 0x10, 0x00, 0x0c, 0x00, 0x08, 0x00, 0x04, 0x00, 
	0x0a, 0x00, 0x00, 0x00, 0x0c, 0x00, 0x00, 0x00, 0x1c, 0x00, 0x00, 0x00, 0x38, 0x00, 0x00, 0x00, 0x0f, 0x00, 0x00, 0x00, 
	0x73, 0x65, 0x72, 0x76, 0x69, 0x6e, 0x67, 0x5f, 0x64, 0x65, 0x66, 0x61, 0x75, 0x6c, 0x74, 0x00, 0x01, 0x00, 0x00, 0x00, 
	0x04, 0x00, 0x00, 0x00, 0x94, 0xff, 0xff, 0xff, 0x10, 0x00, 0x00, 0x00, 0x04, 0x00, 0x00, 0x00, 0x07, 0x00, 0x00, 0x00, 
	0x64, 0x65, 0x6e, 0x73, 0x65, 0x5f, 0x39, 0x00, 0x01, 0x00, 0x00, 0x00, 0x04, 0x00, 0x00, 0x00, 0x32, 0xf7, 0xff, 0xff, 
	0x04, 0x00, 0x00, 0x00, 0x0d, 0x00, 0x00, 0x00, 0x64, 0x65, 0x6e, 0x73, 0x65, 0x5f, 0x35, 0x5f, 0x69, 0x6e, 0x70, 0x75, 
	0x74, 0x00, 0x00, 0x00, 0x02, 0x00, 0x00, 0x00, 0x34, 0x00, 0x00, 0x00, 0x04, 0x00, 0x00, 0x00, 0xdc, 0xff, 0xff, 0xff, 
	0x13, 0x00, 0x00, 0x00, 0x04, 0x00, 0x00, 0x00, 0x13, 0x00, 0x00, 0x00, 0x43, 0x4f, 0x4e, 0x56, 0x45, 0x52, 0x53, 0x49, 
	0x4f, 0x4e, 0x5f, 0x4d, 0x45, 0x54, 0x41, 0x44, 0x41, 0x54, 0x41, 0x00, 0x08, 0x00, 0x0c, 0x00, 0x08, 0x00, 0x04, 0x00, 
	0x08, 0x00, 0x00, 0x00, 0x12, 0x00, 0x00, 0x00, 0x04, 0x00, 0x00, 0x00, 0x13, 0x00, 0x00, 0x00, 0x6d, 0x69, 0x6e, 0x5f, 
	0x72, 0x75, 0x6e, 0x74, 0x69, 0x6d, 0x65, 0x5f, 0x76, 0x65, 0x72, 0x73, 0x69, 0x6f, 0x6e, 0x00, 0x14, 0x00, 0x00, 0x00, 
	0xb8, 0x07, 0x00, 0x00, 0xb0, 0x07, 0x00, 0x00, 0x98, 0x07, 0x00, 0x00, 0x68, 0x07, 0x00, 0x00, 0x18, 0x07, 0x00, 0x00, 
	0xe8, 0x06, 0x00, 0x00, 0xc8, 0x06, 0x00, 0x00, 0xb8, 0x05, 0x00, 0x00, 0x28, 0x05, 0x00, 0x00, 0x18, 0x03, 0x00, 0x00, 
	0x08, 0x01, 0x00, 0x00, 0xb8, 0x00, 0x00, 0x00, 0xb0, 0x00, 0x00, 0x00, 0xa8, 0x00, 0x00, 0x00, 0xa0, 0x00, 0x00, 0x00, 
	0x98, 0x00, 0x00, 0x00, 0x90, 0x00, 0x00, 0x00, 0x88, 0x00, 0x00, 0x00, 0x68, 0x00, 0x00, 0x00, 0x04, 0x00, 0x00, 0x00, 
	0xfe, 0xf7, 0xff, 0xff, 0x04, 0x00, 0x00, 0x00, 0x54, 0x00, 0x00, 0x00, 0x0c, 0x00, 0x00, 0x00, 0x08, 0x00, 0x0e, 0x00, 
	0x08, 0x00, 0x04, 0x00, 0x08, 0x00, 0x00, 0x00, 0x10, 0x00, 0x00, 0x00, 0x24, 0x00, 0x00, 0x00, 0x00, 0x00, 0x06, 0x00, 
	0x08, 0x00, 0x04, 0x00, 0x06, 0x00, 0x00, 0x00, 0x04, 0x00, 0x00, 0x00, 0x00, 0x00, 0x00, 0x00, 0x00, 0x00, 0x0a, 0x00, 
	0x10, 0x00, 0x0c, 0x00, 0x08, 0x00, 0x04, 0x00, 0x0a, 0x00, 0x00, 0x00, 0x02, 0x00, 0x00, 0x00, 0x02, 0x00, 0x00, 0x00, 
	0x04, 0x00, 0x00, 0x00, 0x05, 0x00, 0x00, 0x00, 0x32, 0x2e, 0x39, 0x2e, 0x31, 0x00, 0x00, 0x00, 0x5e, 0xf8, 0xff, 0xff, 
	0x04, 0x00, 0x00, 0x00, 0x10, 0x00, 0x00, 0x00, 0x31, 0x2e, 0x35, 0x2e, 0x30, 0x00, 0x00, 0x00, 0x00, 0x00, 0x00, 0x00, 
	0x00, 0x00, 0x00, 0x00, 0xc8, 0xf0, 0xff, 0xff, 0xcc, 0xf0, 0xff, 0xff, 0xd0, 0xf0, 0xff, 0xff, 0xd4, 0xf0, 0xff, 0xff, 
	0xd8, 0xf0, 0xff, 0xff, 0xdc, 0xf0, 0xff, 0xff, 0x92, 0xf8, 0xff, 0xff, 0x04, 0x00, 0x00, 0x00, 0x40, 0x00, 0x00, 0x00, 
	0xbc, 0x11, 0x0e, 0x3e, 0xf2, 0xdf, 0x25, 0x3e, 0x6b, 0x53, 0xa8, 0xbb, 0x79, 0x92, 0xb7, 0xbe, 0xa7, 0x47, 0x21, 0x3e, 
	0x6e, 0x24, 0xc1, 0xbe, 0xbc, 0x95, 0x29, 0x3e, 0xf9, 0x6f, 0x22, 0x3e, 0x30, 0xc4, 0x1e, 0xbe, 0xbf, 0x5c, 0x27, 0xbe, 
	0xb1, 0xfe, 0x1b, 0x3d, 0x27, 0xa1, 0xc3, 0x3e, 0x2b, 0x10, 0x19, 0xbe, 0xe7, 0x86, 0xd2, 0x3e, 0x51, 0x0d, 0x2d, 0xbe, 
	0x73, 0xe9, 0x1c, 0xbe, 0xde, 0xf8, 0xff, 0xff, 0x04, 0x00, 0x00, 0x00, 0x00, 0x02, 0x00, 0x00, 0x77, 0x27, 0x36, 0x3d, 
	0x03, 0x8a, 0x10, 0x3d, 0x79, 0x38, 0xed, 0xbb, 0xaa, 0x44, 0x4b, 0x3e, 0xce, 0x61, 0x4d, 0x3e, 0x40, 0xfa, 0xfc, 0xbc, 
	0x79, 0xb8, 0x30, 0x3e, 0x40, 0xce, 0xea, 0x3d, 0x02, 0x1b, 0x4b, 0x3e, 0x03, 0x80, 0xf1, 0xbd, 0x7d, 0xf5, 0x3e, 0x3d, 
	0xf2, 0x3f, 0x80, 0x3c, 0x18, 0xda, 0x44, 0x3c, 0x75, 0x52, 0xdf, 0x3c, 0x24, 0x28, 0x78, 0x3c, 0xf6, 0x68, 0x1b, 0xbd, 
	0x74, 0x27, 0x24, 0x3c, 0x4d, 0x4c, 0xe6, 0xbc, 0x5e, 0x77, 0x8e, 0xbc, 0x16, 0x76, 0x31, 0x3e, 0xa6, 0xc3, 0x1a, 0x3e, 
	0xd0, 0xd8, 0xd0, 0x3b, 0xc0, 0x2f, 0x3d, 0x3e, 0xdd, 0x02, 0x44, 0x3e, 0x7d, 0x49, 0x3a, 0x3e, 0x51, 0xd1, 0x9a, 0xbd, 
	0x4c, 0x05, 0x1a, 0x3c, 0xdd, 0x26, 0x15, 0xbd, 0x00, 0x68, 0x38, 0xbc, 0x39, 0xf6, 0xe0, 0x3b, 0xd0, 0xa2, 0xc6, 0x3b, 
	0x1d, 0x5f, 0x35, 0xbd, 0x57, 0xc7, 0x44, 0x3d, 0x3a, 0xc5, 0x82, 0x3c, 0xda, 0x9a, 0xe5, 0xbc, 0xe3, 0x17, 0x65, 0x3c, 
	0xaf, 0xb0, 0x1a, 0xbd, 0x00, 0xb2, 0xf4, 0xbb, 0xd2, 0xe0, 0x28, 0x3d, 0x15, 0xc4, 0x8d, 0x3a, 0x3e, 0x4e, 0x39, 0xbd, 
	0x66, 0xef, 0x18, 0xbd, 0x87, 0x92, 0x27, 0x3d, 0xe8, 0xbd, 0x88, 0xbb, 0x43, 0x34, 0x14, 0x3d, 0xa7, 0xce, 0x0f, 0x3d, 
	0x80, 0x75, 0x34, 0xbc, 0x82, 0x63, 0xd7, 0x3c, 0xd8, 0xe8, 0x1a, 0xbc, 0x18, 0x31, 0xfe, 0xbc, 0x39, 0x9e, 0xc9, 0x3e, 
	0x52, 0x54, 0xb2, 0xbd, 0x95, 0x38, 0xac, 0x3c, 0x16, 0x64, 0x20, 0xbd, 0x8a, 0x6c, 0x84, 0xbd, 0xdc, 0x57, 0xeb, 0xbc, 
	0xd5, 0x93, 0xf3, 0x3b, 0x49, 0x5f, 0x01, 0x3f, 0x70, 0xd4, 0x1f, 0xbd, 0x4d, 0x75, 0x43, 0xbd, 0x40, 0xb8, 0x26, 0xbd, 
	0x37, 0xae, 0x29, 0x3d, 0x2e, 0x23, 0xf9, 0x3c, 0xa2, 0x1d, 0xa6, 0x3c, 0x93, 0x42, 0xf5, 0xbc, 0x3a, 0xe0, 0xc6, 0x3c, 
	0x83, 0x8d, 0x17, 0xbc, 0x57, 0x4c, 0x2f, 0x3e, 0x9a, 0x87, 0x53, 0x3e, 0xe8, 0xa0, 0xa1, 0x3b, 0x52, 0xf8, 0xd7, 0x3d, 
	0x7a, 0x87, 0x3c, 0x3e, 0xee, 0x6b, 0x26, 0x3e, 0xee, 0xe0, 0xd1, 0xbd, 0x98, 0xbc, 0x58, 0xbc, 0x6e, 0x6b, 0xd7, 0x3c, 
	0xd3, 0xf4, 0x1f, 0xbd, 0x2f, 0x50, 0x87, 0x3c, 0x74, 0xb0, 0x65, 0xbc, 0xc0, 0xa6, 0xc2, 0x3a, 0x18, 0xda, 0xa6, 0x3b, 
	0xe9, 0x91, 0xb9, 0xbc, 0xc5, 0x73, 0xe7, 0x3e, 0x5a, 0x07, 0x2a, 0xbd, 0xd0, 0x58, 0x3b, 0x3d, 0x84, 0x9c, 0x53, 0x3c, 
	0xc6, 0x16, 0xbe, 0xbd, 0xd8, 0x73, 0x44, 0xbd, 0x2f, 0x60, 0x71, 0xbd, 0x05, 0x8c, 0x07, 0x3f, 0x13, 0x79, 0x17, 0xbd, 
	0xa7, 0x72, 0x41, 0x3d, 0x46, 0x6b, 0x8e, 0x3c, 0x28, 0xab, 0x3c, 0x3c, 0x26, 0xd7, 0x99, 0x3c, 0x0a, 0x17, 0x4b, 0xbd, 
	0xca, 0xfb, 0x0f, 0xbd, 0x0a, 0x36, 0x07, 0xbd, 0x56, 0xfd, 0x98, 0xbc, 0x4b, 0x9c, 0x2e, 0x3e, 0x94, 0x94, 0x29, 0x3e, 
	0x6d, 0x30, 0x13, 0xbd, 0x70, 0x7f, 0x47, 0x3e, 0x28, 0x9c, 0x3e, 0x3e, 0x67, 0xfc, 0x24, 0x3e, 0x28, 0x42, 0x92, 0xbd, 
	0x70, 0xab, 0x03, 0xbd, 0x89, 0xe6, 0x13, 0x3d, 0xcc, 0xa8, 0x5f, 0xbc, 0x99, 0xe8, 0xca, 0x3c, 0x80, 0xda, 0x95, 0x3b, 
	0x18, 0x1a, 0xcf, 0x3b, 0xb3, 0xf5, 0x1a, 0x3d, 0xb0, 0x74, 0x0d, 0xbd, 0x43, 0x51, 0x9c, 0xbc, 0x92, 0xc0, 0x4c, 0x3e, 
	0xf1, 0x9f, 0x35, 0x3e, 0x07, 0x1d, 0xe9, 0xbc, 0x68, 0x2b, 0x1e, 0x3e, 0xf7, 0xb6, 0x46, 0x3e, 0x5d, 0x6b, 0x08, 0x3e, 
	0xd2, 0x7e, 0x90, 0xbd, 0x60, 0x66, 0x87, 0xbc, 0xce, 0xb4, 0x8a, 0x3c, 0x53, 0x61, 0x3b, 0x3d, 0x82, 0x3c, 0x96, 0xbc, 
	0x00, 0x65, 0x72, 0x3b, 0xcc, 0x08, 0x53, 0xbc, 0xea, 0xfa, 0xff, 0xff, 0x04, 0x00, 0x00, 0x00, 0x00, 0x02, 0x00, 0x00, 
	0x13, 0x12, 0x42, 0xbd, 0x01, 0x7d, 0x08, 0x3d, 0x3d, 0xbe, 0x41, 0xbd, 0xb4, 0xc4, 0x0a, 0xbd, 0xd4, 0x40, 0x8b, 0xbc, 
	0x13, 0x0b, 0xa0, 0xbc, 0xe8, 0x22, 0xb4, 0xbb, 0x66, 0x5f, 0xf0, 0x3c, 0x84, 0x80, 0x00, 0xbd, 0xc2, 0xbe, 0xa6, 0x3c, 
	0x11, 0xa4, 0xad, 0xbc, 0xa7, 0x5f, 0x9d, 0x3b, 0xa0, 0xbe, 0x6d, 0x3b, 0x4d, 0x16, 0x2a, 0xbd, 0xf3, 0xa3, 0x47, 0xbd, 
	0x73, 0x32, 0x1e, 0x3d, 0x6f, 0xa2, 0xc6, 0xbc, 0x8d, 0xa2, 0x33, 0x3d, 0x86, 0xda, 0x8d, 0x3d, 0x22, 0xc6, 0xd5, 0x3e, 
	0xb0, 0x46, 0xda, 0x3e, 0x3a, 0x72, 0xf9, 0xbc, 0x22, 0xad, 0xf9, 0x3c, 0xa0, 0x26, 0x4e, 0xbb, 0x12, 0x2f, 0x0c, 0x3c, 
	0x63, 0x61, 0x48, 0x3d, 0x4b, 0x6a, 0x42, 0x3e, 0xfc, 0xb5, 0x95, 0xbd, 0x51, 0x5c, 0xe8, 0xbd, 0xf6, 0x1a, 0x09, 0xbd, 
	0xc0, 0xdc, 0x3c, 0x3a, 0x4c, 0xf2, 0x2e, 0x3c, 0x00, 0xd6, 0x01, 0x3d, 0xcc, 0xe0, 0x21, 0xbc, 0xd5, 0xb0, 0x3d, 0x3e, 
	0x4d, 0xde, 0xc1, 0xbd, 0x28, 0x80, 0x86, 0xbd, 0x0d, 0xa6, 0x2f, 0xbd, 0x80, 0xd9, 0xbf, 0xb9, 0xa0, 0x00, 0xec, 0xbc, 
	0x11, 0x40, 0x41, 0x3d, 0x13, 0xf8, 0xff, 0xbc, 0xad, 0xba, 0xf8, 0xbc, 0xa4, 0x90, 0x4e, 0x3c, 0x5a, 0x11, 0xcd, 0xbc, 
	0x69, 0x92, 0x15, 0x3d, 0xb4, 0x32, 0x04, 0xbc, 0x30, 0x9b, 0x10, 0xbb, 0x1b, 0x8f, 0x42, 0xbd, 0x36, 0x41, 0x05, 0xbd, 
	0x14, 0xf8, 0x42, 0x3e, 0xc3, 0x6d, 0xc1, 0xbd, 0x8e, 0x7d, 0xb2, 0xbd, 0x9c, 0x1d, 0x64, 0x3c, 0xcd, 0xd8, 0xb8, 0xbc, 
	0x8d, 0x87, 0x45, 0x3d, 0x13, 0xd8, 0x12, 0x3d, 0x73, 0x84, 0x36, 0x3d, 0x88, 0x05, 0x3c, 0x3e, 0xb1, 0x54, 0x6c, 0xbd, 
	0x24, 0x24, 0xfc, 0xbd, 0x93, 0x89, 0xf2, 0xbc, 0xb4, 0xa0, 0x49, 0x3c, 0xe6, 0xe4, 0xcd, 0x3c, 0x7b, 0x9c, 0x4b, 0xbb, 
	0xf3, 0x5e, 0xa7, 0xbc, 0xb4, 0x8b, 0x1f, 0x3e, 0x0a, 0x95, 0xa8, 0xbd, 0x1e, 0xa4, 0x8e, 0xbd, 0xe0, 0xd9, 0x1d, 0xbd, 
	0x34, 0x3c, 0x01, 0x3c, 0x87, 0x60, 0x21, 0x3d, 0x00, 0xcf, 0x05, 0xbc, 0x8c, 0xa3, 0x44, 0xbc, 0xbc, 0x9f, 0x5c, 0xbe, 
	0xa3, 0x59, 0x46, 0x3e, 0x02, 0x66, 0x1b, 0x3e, 0x42, 0x48, 0xa2, 0x3c, 0xfa, 0xd7, 0x8f, 0x3c, 0xfa, 0xb9, 0x8b, 0x3c, 
	0x13, 0xc3, 0x1e, 0xbd, 0x40, 0x08, 0x2a, 0xbd, 0xf4, 0x10, 0x02, 0xbd, 0x44, 0xd9, 0x6c, 0x3c, 0x00, 0xfa, 0xa0, 0xba, 
	0xdc, 0xcb, 0x61, 0x3c, 0x27, 0xd5, 0xda, 0xbc, 0x86, 0x57, 0xdb, 0x3c, 0x30, 0xaa, 0x47, 0x3b, 0x03, 0x73, 0x28, 0x3d, 
	0x6d, 0x42, 0x46, 0xbd, 0x7a, 0xa9, 0xfb, 0xbc, 0x73, 0x1d, 0x48, 0x3d, 0x98, 0x3c, 0xe9, 0xbb, 0x83, 0x90, 0x18, 0x3d, 
	0x2a, 0x85, 0x0b, 0xbd, 0x13, 0x25, 0xcb, 0xbc, 0x6a, 0x4e, 0x46, 0xbd, 0xed, 0xc8, 0xeb, 0xbc, 0x67, 0xc2, 0xb9, 0xbc, 
	0x18, 0x01, 0xde, 0xbb, 0x52, 0x3d, 0xed, 0x3c, 0x80, 0x63, 0x29, 0xbd, 0xba, 0x73, 0xbb, 0xbc, 0x98, 0xd8, 0x2f, 0xbc, 
	0x30, 0x5e, 0x91, 0x3b, 0x52, 0x3f, 0x42, 0xbc, 0x8d, 0x45, 0x2a, 0xbd, 0xc9, 0xb6, 0x22, 0x3d, 0x59, 0xd6, 0x1f, 0x3d, 
	0xad, 0xd4, 0x48, 0xbd, 0xb4, 0x44, 0x28, 0x3c, 0xbd, 0x50, 0x48, 0x3d, 0xd0, 0xc4, 0x96, 0xbb, 0x66, 0x7d, 0x84, 0xbc, 
	0x5a, 0xfb, 0xda, 0x3c, 0xcd, 0x8d, 0xbe, 0xbc, 0x80, 0x46, 0x9f, 0xb9, 0xd2, 0x75, 0xe9, 0x3c, 0xed, 0xea, 0x13, 0xbd, 
	0x30, 0x39, 0xd4, 0xbb, 0x30, 0xaa, 0x48, 0xbb, 0x77, 0xd3, 0x3b, 0xbd, 0x27, 0x90, 0xa7, 0xbc, 0xd4, 0x1f, 0x97, 0xbc, 
	0xc4, 0x0f, 0x77, 0x3c, 0x36, 0x78, 0x08, 0xbd, 0x18, 0xaa, 0x4f, 0xbc, 0xf6, 0xfc, 0xff, 0xff, 0x04, 0x00, 0x00, 0x00, 
	0x80, 0x00, 0x00, 0x00, 0x52, 0x78, 0xfb, 0xbc, 0x22, 0x53, 0xaf, 0x3c, 0x2b, 0x92, 0x87, 0xba, 0xfd, 0x5b, 0x47, 0xbd, 
	0xc0, 0xe8, 0x62, 0xba, 0x00, 0x9a, 0x28, 0x39, 0x2d, 0x91, 0xa2, 0xbc, 0x06, 0xa3, 0x1c, 0xbd, 0x09, 0x99, 0x99, 0x3e, 
	0xe1, 0x4c, 0xd9, 0xbc, 0x65, 0xce, 0x80, 0x3d, 0x00, 0x0f, 0xb8, 0xbc, 0x73, 0xd8, 0x64, 0xbe, 0xdc, 0x39, 0x71, 0x3c, 
	0x89, 0xa2, 0xdc, 0x3d, 0xa8, 0x67, 0x09, 0x3c, 0x3e, 0xa3, 0x3f, 0xbe, 0xac, 0xa5, 0x3c, 0xbd, 0xf7, 0x97, 0xc6, 0x3d, 
	0xc4, 0x26, 0x7b, 0x3c, 0xb0, 0xe5, 0x14, 0xbd, 0x27, 0x28, 0x40, 0xbd, 0xe0, 0xb2, 0xbd, 0xbc, 0x50, 0x72, 0xae, 0xbb, 
	0x07, 0xcb, 0x3e, 0xbd, 0x57, 0xff, 0x38, 0xbd, 0x80, 0x3e, 0x8b, 0xbc, 0xee, 0xf4, 0xeb, 0x3c, 0x7a, 0x58, 0xbb, 0xbc, 
	0xae, 0xf6, 0x91, 0x3c, 0x68, 0x68, 0xdc, 0xbb, 0xb2, 0xa3, 0xca, 0x3c, 0x82, 0xfd, 0xff, 0xff, 0x04, 0x00, 0x00, 0x00, 
	0x00, 0x01, 0x00, 0x00, 0xcd, 0xf7, 0xf7, 0x3d, 0x06, 0x07, 0xc0, 0xbd, 0xca, 0xc1, 0x43, 0xbb, 0xa2, 0x35, 0x2b, 0xbd, 
	0x77, 0x38, 0xc7, 0x3e, 0x57, 0x91, 0xcb, 0x3d, 0x87, 0x94, 0x52, 0xbd, 0x53, 0xe9, 0x54, 0xbd, 0xd6, 0xec, 0x22, 0x3f, 
	0x09, 0x6b, 0x56, 0x3f, 0xce, 0xcd, 0x5c, 0xbf, 0x89, 0xea, 0x1d, 0xbe, 0x4e, 0xc5, 0x90, 0x40, 0x36, 0x3c, 0x0d, 0x40, 
	0xd2, 0x9e, 0xf0, 0xbf, 0xfe, 0x16, 0x09, 0xbe, 0xa6, 0xe5, 0x89, 0xbc, 0xf2, 0xd2, 0x42, 0xbd, 0xe9, 0x39, 0x09, 0x3c, 
	0x37, 0x4a, 0xdb, 0x3c, 0x7d, 0x87, 0x6d, 0xbb, 0x1a, 0xff, 0x27, 0x3d, 0x25, 0x96, 0x21, 0xbd, 0x7d, 0x3a, 0x9b, 0xbc, 
	0x1b, 0xeb, 0x13, 0xbb, 0x26, 0xbf, 0x20, 0xbc, 0x15, 0x7b, 0x84, 0x3b, 0xaf, 0x3e, 0x1b, 0xbd, 0xa6, 0x74, 0xb7, 0xbc, 
	0x4c, 0xa3, 0xa5, 0x3c, 0xeb, 0x75, 0x2f, 0xbd, 0x72, 0x7d, 0x88, 0x3c, 0x50, 0x20, 0x29, 0x3d, 0x46, 0xbb, 0x6b, 0x3d, 
	0xaf, 0x31, 0x29, 0xbd, 0xcf, 0x78, 0x6f, 0x3d, 0xe4, 0x2b, 0x68, 0xbe, 0xd2, 0x79, 0x27, 0xbe, 0x10, 0x07, 0x06, 0x3d, 
	0x8e, 0x8d, 0xa7, 0x3d, 0x29, 0x83, 0x10, 0xbf, 0xde, 0xe0, 0x63, 0xbf, 0xb3, 0x9b, 0x56, 0x3f, 0xa7, 0xf2, 0xba, 0x3d, 
	0x99, 0xd5, 0x8e, 0xc0, 0x84, 0x44, 0x0e, 0xc0, 0x7a, 0xd6, 0xfa, 0x3f, 0x3f, 0xe3, 0x83, 0x3e, 0xfa, 0xad, 0x39, 0xbd, 
	0x84, 0x82, 0x65, 0x3c, 0x12, 0x94, 0xcc, 0x3c, 0xd6, 0xe3, 0x16, 0xbd, 0x93, 0x0f, 0x35, 0x3d, 0x2d, 0x4f, 0xae, 0xbc, 
	0xa0, 0xcb, 0xaf, 0x3a, 0xdd, 0xe7, 0x22, 0xbd, 0x90, 0x26, 0x2b, 0xbd, 0xbd, 0x8e, 0x05, 0xbd, 0x01, 0x98, 0x15, 0x3d, 
	0x00, 0xcd, 0x2e, 0xbc, 0x60, 0xf3, 0x62, 0x3b, 0x83, 0x42, 0x3b, 0x3d, 0xac, 0x38, 0x87, 0xbc, 0x33, 0x43, 0x4b, 0xbd, 
	0x8e, 0xfe, 0xff, 0xff, 0x04, 0x00, 0x00, 0x00, 0x10, 0x00, 0x00, 0x00, 0xb8, 0x43, 0x0b, 0x3e, 0x50, 0x00, 0x19, 0xbb, 
	0x37, 0x66, 0x34, 0xbe, 0x00, 0x00, 0x00, 0x00, 0xaa, 0xfe, 0xff, 0xff, 0x04, 0x00, 0x00, 0x00, 0x20, 0x00, 0x00, 0x00, 
	0x9f, 0xee, 0x19, 0xbc, 0x00, 0x00, 0x00, 0x00, 0x2b, 0xa9, 0x63, 0x3e, 0x54, 0x1a, 0x8a, 0xbd, 0x4a, 0xc3, 0x62, 0xbd, 
	0x00, 0x00, 0x00, 0x00, 0x00, 0x00, 0x00, 0x00, 0x00, 0x00, 0x00, 0x00, 0xd6, 0xfe, 0xff, 0xff, 0x04, 0x00, 0x00, 0x00, 
	0x40, 0x00, 0x00, 0x00, 0x00, 0x00, 0x00, 0x00, 0x58, 0x2e, 0x80, 0xb9, 0x62, 0x07, 0x84, 0xbc, 0xf4, 0x38, 0x8e, 0x3e, 
	0xce, 0x40, 0x6e, 0x3e, 0x00, 0x00, 0x00, 0x00, 0x1e, 0x87, 0x84, 0x3e, 0x6f, 0x74, 0x7a, 0x3e, 0xcf, 0x47, 0x83, 0x3e, 
	0xf3, 0x43, 0x14, 0x3e, 0x00, 0x00, 0x00, 0x00, 0x00, 0x00, 0x00, 0x00, 0x00, 0x00, 0x00, 0x00, 0x5c, 0xbd, 0xf7, 0xbb, 
	0x00, 0x00, 0x00, 0x00, 0x00, 0x00, 0x00, 0x00, 0x22, 0xff, 0xff, 0xff, 0x04, 0x00, 0x00, 0x00, 0x20, 0x00, 0x00, 0x00, 
	0xd5, 0x82, 0x88, 0x3e, 0x6e, 0x32, 0x87, 0x3e, 0x18, 0x12, 0xa9, 0xbb, 0xf3, 0x8a, 0x64, 0x3d, 0x76, 0xe4, 0x81, 0x3e, 
	0x03, 0x92, 0xda, 0x3d, 0xd1, 0x25, 0x88, 0x3e, 0xed, 0x34, 0x88, 0x3e, 0x4e, 0xff, 0xff, 0xff, 0x04, 0x00, 0x00, 0x00, 
	0x08, 0x00, 0x00, 0x00, 0x6f, 0x27, 0xe9, 0xbc, 0x73, 0x28, 0xe9, 0x3c, 0xb0, 0xf7, 0xff, 0xff, 0xb4, 0xf7, 0xff, 0xff, 
	0x0f, 0x00, 0x00, 0x00, 0x4d, 0x4c, 0x49, 0x52, 0x20, 0x43, 0x6f, 0x6e, 0x76, 0x65, 0x72, 0x74, 0x65, 0x64, 0x2e, 0x00, 
	0x01, 0x00, 0x00, 0x00, 0x14, 0x00, 0x00, 0x00, 0x00, 0x00, 0x0e, 0x00, 0x18, 0x00, 0x14, 0x00, 0x10, 0x00, 0x0c, 0x00, 
	0x08, 0x00, 0x04, 0x00, 0x0e, 0x00, 0x00, 0x00, 0x14, 0x00, 0x00, 0x00, 0x1c, 0x00, 0x00, 0x00, 0x94, 0x01, 0x00, 0x00, 
	0x98, 0x01, 0x00, 0x00, 0x9c, 0x01, 0x00, 0x00, 0x04, 0x00, 0x00, 0x00, 0x6d, 0x61, 0x69, 0x6e, 0x00, 0x00, 0x00, 0x00, 
	0x06, 0x00, 0x00, 0x00, 0x3c, 0x01, 0x00, 0x00, 0xf4, 0x00, 0x00, 0x00, 0xbc, 0x00, 0x00, 0x00, 0x84, 0x00, 0x00, 0x00, 
	0x50, 0x00, 0x00, 0x00, 0x14, 0x00, 0x00, 0x00, 0x00, 0x00, 0x0e, 0x00, 0x1a, 0x00, 0x14, 0x00, 0x10, 0x00, 0x0c, 0x00, 
	0x0b, 0x00, 0x04, 0x00, 0x0e, 0x00, 0x00, 0x00, 0x1c, 0x00, 0x00, 0x00, 0x00, 0x00, 0x00, 0x09, 0x1c, 0x00, 0x00, 0x00, 
	0x20, 0x00, 0x00, 0x00, 0x01, 0x00, 0x00, 0x00, 0x00, 0x00, 0x06, 0x00, 0x08, 0x00, 0x04, 0x00, 0x06, 0x00, 0x00, 0x00, 
	0x00, 0x00, 0x80, 0x3f, 0x01, 0x00, 0x00, 0x00, 0x10, 0x00, 0x00, 0x00, 0x01, 0x00, 0x00, 0x00, 0x0f, 0x00, 0x00, 0x00, 
	0x32, 0xff, 0xff, 0xff, 0x10, 0x00, 0x00, 0x00, 0x00, 0x00, 0x00, 0x08, 0x0c, 0x00, 0x00, 0x00, 0x10, 0x00, 0x00, 0x00, 
	0x80, 0xf8, 0xff, 0xff, 0x01, 0x00, 0x00, 0x00, 0x0f, 0x00, 0x00, 0x00, 0x03, 0x00, 0x00, 0x00, 0x0e, 0x00, 0x00, 0x00, 
	0x0a, 0x00, 0x00, 0x00, 0x01, 0x00, 0x00, 0x00, 0x62, 0xff, 0xff, 0xff, 0x10, 0x00, 0x00, 0x00, 0x00, 0x00, 0x00, 0x08, 
	0x10, 0x00, 0x00, 0x00, 0x14, 0x00, 0x00, 0x00, 0x52, 0xff, 0xff, 0xff, 0x00, 0x00, 0x00, 0x01, 0x01, 0x00, 0x00, 0x00, 
	0x0e, 0x00, 0x00, 0x00, 0x03, 0x00, 0x00, 0x00, 0x0d, 0x00, 0x00, 0x00, 0x09, 0x00, 0x00, 0x00, 0x02, 0x00, 0x00, 0x00, 
	0x96, 0xff, 0xff, 0xff, 0x10, 0x00, 0x00, 0x00, 0x00, 0x00, 0x00, 0x08, 0x10, 0x00, 0x00, 0x00, 0x14, 0x00, 0x00, 0x00, 
	0x86, 0xff, 0xff, 0xff, 0x00, 0x00, 0x00, 0x01, 0x01, 0x00, 0x00, 0x00, 0x0d, 0x00, 0x00, 0x00, 0x03, 0x00, 0x00, 0x00, 
	0x0c, 0x00, 0x00, 0x00, 0x08, 0x00, 0x00, 0x00, 0x03, 0x00, 0x00, 0x00, 0xca, 0xff, 0xff, 0xff, 0x10, 0x00, 0x00, 0x00, 
	0x00, 0x00, 0x00, 0x08, 0x10, 0x00, 0x00, 0x00, 0x14, 0x00, 0x00, 0x00, 0xba, 0xff, 0xff, 0xff, 0x00, 0x00, 0x00, 0x01, 
	0x01, 0x00, 0x00, 0x00, 0x0c, 0x00, 0x00, 0x00, 0x03, 0x00, 0x00, 0x00, 0x0b, 0x00, 0x00, 0x00, 0x07, 0x00, 0x00, 0x00, 
	0x04, 0x00, 0x00, 0x00, 0x00, 0x00, 0x0e, 0x00, 0x16, 0x00, 0x00, 0x00, 0x10, 0x00, 0x0c, 0x00, 0x0b, 0x00, 0x04, 0x00, 
	0x0e, 0x00, 0x00, 0x00, 0x18, 0x00, 0x00, 0x00, 0x00, 0x00, 0x00, 0x08, 0x18, 0x00, 0x00, 0x00, 0x1c, 0x00, 0x00, 0x00, 
	0x00, 0x00, 0x06, 0x00, 0x08, 0x00, 0x07, 0x00, 0x06, 0x00, 0x00, 0x00, 0x00, 0x00, 0x00, 0x01, 0x01, 0x00, 0x00, 0x00, 
	0x0b, 0x00, 0x00, 0x00, 0x03, 0x00, 0x00, 0x00, 0x00, 0x00, 0x00, 0x00, 0x06, 0x00, 0x00, 0x00, 0x05, 0x00, 0x00, 0x00, 
	0x01, 0x00, 0x00, 0x00, 0x10, 0x00, 0x00, 0x00, 0x01, 0x00, 0x00, 0x00, 0x00, 0x00, 0x00, 0x00, 0x11, 0x00, 0x00, 0x00, 
	0x44, 0x06, 0x00, 0x00, 0xdc, 0x05, 0x00, 0x00, 0x78, 0x05, 0x00, 0x00, 0x24, 0x05, 0x00, 0x00, 0xd0, 0x04, 0x00, 0x00, 
	0x7c, 0x04, 0x00, 0x00, 0x34, 0x04, 0x00, 0x00, 0xec, 0x03, 0x00, 0x00, 0xa4, 0x03, 0x00, 0x00, 0x5c, 0x03, 0x00, 0x00, 
	0x14, 0x03, 0x00, 0x00, 0x84, 0x02, 0x00, 0x00, 0xf4, 0x01, 0x00, 0x00, 0x64, 0x01, 0x00, 0x00, 0xd4, 0x00, 0x00, 0x00, 
	0x5c, 0x00, 0x00, 0x00, 0x04, 0x00, 0x00, 0x00, 0x14, 0xfa, 0xff, 0xff, 0x14, 0x00, 0x00, 0x00, 0x1c, 0x00, 0x00, 0x00, 
	0x1c, 0x00, 0x00, 0x00, 0x11, 0x00, 0x00, 0x00, 0x34, 0x00, 0x00, 0x00, 0x02, 0x00, 0x00, 0x00, 0xff, 0xff, 0xff, 0xff, 
	0x02, 0x00, 0x00, 0x00, 0x00, 0xfa, 0xff, 0xff, 0x19, 0x00, 0x00, 0x00, 0x53, 0x74, 0x61, 0x74, 0x65, 0x66, 0x75, 0x6c, 
	0x50, 0x61, 0x72, 0x74, 0x69, 0x74, 0x69, 0x6f, 0x6e, 0x65, 0x64, 0x43, 0x61, 0x6c, 0x6c, 0x3a, 0x30, 0x00, 0x00, 0x00, 
	0x02, 0x00, 0x00, 0x00, 0x01, 0x00, 0x00, 0x00, 0x02, 0x00, 0x00, 0x00, 0x68, 0xfa, 0xff, 0xff, 0x14, 0x00, 0x00, 0x00, 
	0x1c, 0x00, 0x00, 0x00, 0x1c, 0x00, 0x00, 0x00, 0x10, 0x00, 0x00, 0x00, 0x54, 0x00, 0x00, 0x00, 0x02, 0x00, 0x00, 0x00, 
	0xff, 0xff, 0xff, 0xff, 0x02, 0x00, 0x00, 0x00, 0x54, 0xfa, 0xff, 0xff, 0x38, 0x00, 0x00, 0x00, 0x73, 0x65, 0x71, 0x75, 
	0x65, 0x6e, 0x74, 0x69, 0x61, 0x6c, 0x5f, 0x31, 0x2f, 0x64, 0x65, 0x6e, 0x73, 0x65, 0x5f, 0x39, 0x2f, 0x4d, 0x61, 0x74, 
	0x4d, 0x75, 0x6c, 0x3b, 0x73, 0x65, 0x71, 0x75, 0x65, 0x6e, 0x74, 0x69, 0x61, 0x6c, 0x5f, 0x31, 0x2f, 0x64, 0x65, 0x6e, 
	0x73, 0x65, 0x5f, 0x39, 0x2f, 0x42, 0x69, 0x61, 0x73, 0x41, 0x64, 0x64, 0x00, 0x00, 0x00, 0x00, 0x02, 0x00, 0x00, 0x00, 
	0x01, 0x00, 0x00, 0x00, 0x02, 0x00, 0x00, 0x00, 0xdc, 0xfa, 0xff, 0xff, 0x14, 0x00, 0x00, 0x00, 0x1c, 0x00, 0x00, 0x00, 
	0x1c, 0x00, 0x00, 0x00, 0x0f, 0x00, 0x00, 0x00, 0x6c, 0x00, 0x00, 0x00, 0x02, 0x00, 0x00, 0x00, 0xff, 0xff, 0xff, 0xff, 
	0x08, 0x00, 0x00, 0x00, 0xc8, 0xfa, 0xff, 0xff, 0x52, 0x00, 0x00, 0x00, 0x73, 0x65, 0x71, 0x75, 0x65, 0x6e, 0x74, 0x69, 
	0x61, 0x6c, 0x5f, 0x31, 0x2f, 0x64, 0x65, 0x6e, 0x73, 0x65, 0x5f, 0x38, 0x2f, 0x4d, 0x61, 0x74, 0x4d, 0x75, 0x6c, 0x3b, 
	0x73, 0x65, 0x71, 0x75, 0x65, 0x6e, 0x74, 0x69, 0x61, 0x6c, 0x5f, 0x31, 0x2f, 0x64, 0x65, 0x6e, 0x73, 0x65, 0x5f, 0x38, 
	0x2f, 0x52, 0x65, 0x6c, 0x75, 0x3b, 0x73, 0x65, 0x71, 0x75, 0x65, 0x6e, 0x74, 0x69, 0x61, 0x6c, 0x5f, 0x31, 0x2f, 0x64, 
	0x65, 0x6e, 0x73, 0x65, 0x5f, 0x38, 0x2f, 0x42, 0x69, 0x61, 0x73, 0x41, 0x64, 0x64, 0x00, 0x00, 0x02, 0x00, 0x00, 0x00, 
	0x01, 0x00, 0x00, 0x00, 0x08, 0x00, 0x00, 0x00, 0x68, 0xfb, 0xff, 0xff, 0x14, 0x00, 0x00, 0x00, 0x1c, 0x00, 0x00, 0x00, 
	0x1c, 0x00, 0x00, 0x00, 0x0e, 0x00, 0x00, 0x00, 0x6c, 0x00, 0x00, 0x00, 0x02, 0x00, 0x00, 0x00, 0xff, 0xff, 0xff, 0xff, 
	0x10, 0x00, 0x00, 0x00, 0x54, 0xfb, 0xff, 0xff, 0x52, 0x00, 0x00, 0x00, 0x73, 0x65, 0x71, 0x75, 0x65, 0x6e, 0x74, 0x69, 
	0x61, 0x6c, 0x5f, 0x31, 0x2f, 0x64, 0x65, 0x6e, 0x73, 0x65, 0x5f, 0x37, 0x2f, 0x4d, 0x61, 0x74, 0x4d, 0x75, 0x6c, 0x3b, 
	0x73, 0x65, 0x71, 0x75, 0x65, 0x6e, 0x74, 0x69, 0x61, 0x6c, 0x5f, 0x31, 0x2f, 0x64, 0x65, 0x6e, 0x73, 0x65, 0x5f, 0x37, 
	0x2f, 0x52, 0x65, 0x6c, 0x75, 0x3b, 0x73, 0x65, 0x71, 0x75, 0x65, 0x6e, 0x74, 0x69, 0x61, 0x6c, 0x5f, 0x31, 0x2f, 0x64, 
	0x65, 0x6e, 0x73, 0x65, 0x5f, 0x37, 0x2f, 0x42, 0x69, 0x61, 0x73, 0x41, 0x64, 0x64, 0x00, 0x00, 0x02, 0x00, 0x00, 0x00, 
	0x01, 0x00, 0x00, 0x00, 0x10, 0x00, 0x00, 0x00, 0xf4, 0xfb, 0xff, 0xff, 0x14, 0x00, 0x00, 0x00, 0x1c, 0x00, 0x00, 0x00, 
	0x1c, 0x00, 0x00, 0x00, 0x0d, 0x00, 0x00, 0x00, 0x6c, 0x00, 0x00, 0x00, 0x02, 0x00, 0x00, 0x00, 0xff, 0xff, 0xff, 0xff, 
	0x08, 0x00, 0x00, 0x00, 0xe0, 0xfb, 0xff, 0xff, 0x52, 0x00, 0x00, 0x00, 0x73, 0x65, 0x71, 0x75, 0x65, 0x6e, 0x74, 0x69, 
	0x61, 0x6c, 0x5f, 0x31, 0x2f, 0x64, 0x65, 0x6e, 0x73, 0x65, 0x5f, 0x36, 0x2f, 0x4d, 0x61, 0x74, 0x4d, 0x75, 0x6c, 0x3b, 
	0x73, 0x65, 0x71, 0x75, 0x65, 0x6e, 0x74, 0x69, 0x61, 0x6c, 0x5f, 0x31, 0x2f, 0x64, 0x65, 0x6e, 0x73, 0x65, 0x5f, 0x36, 
	0x2f, 0x52, 0x65, 0x6c, 0x75, 0x3b, 0x73, 0x65, 0x71, 0x75, 0x65, 0x6e, 0x74, 0x69, 0x61, 0x6c, 0x5f, 0x31, 0x2f, 0x64, 
	0x65, 0x6e, 0x73, 0x65, 0x5f, 0x36, 0x2f, 0x42, 0x69, 0x61, 0x73, 0x41, 0x64, 0x64, 0x00, 0x00, 0x02, 0x00, 0x00, 0x00, 
	0x01, 0x00, 0x00, 0x00, 0x08, 0x00, 0x00, 0x00, 0x80, 0xfc, 0xff, 0xff, 0x14, 0x00, 0x00, 0x00, 0x1c, 0x00, 0x00, 0x00, 
	0x1c, 0x00, 0x00, 0x00, 0x0c, 0x00, 0x00, 0x00, 0x6c, 0x00, 0x00, 0x00, 0x02, 0x00, 0x00, 0x00, 0xff, 0xff, 0xff, 0xff, 
	0x04, 0x00, 0x00, 0x00, 0x6c, 0xfc, 0xff, 0xff, 0x52, 0x00, 0x00, 0x00, 0x73, 0x65, 0x71, 0x75, 0x65, 0x6e, 0x74, 0x69, 
	0x61, 0x6c, 0x5f, 0x31, 0x2f, 0x64, 0x65, 0x6e, 0x73, 0x65, 0x5f, 0x35, 0x2f, 0x4d, 0x61, 0x74, 0x4d, 0x75, 0x6c, 0x3b, 
	0x73, 0x65, 0x71, 0x75, 0x65, 0x6e, 0x74, 0x69, 0x61, 0x6c, 0x5f, 0x31, 0x2f, 0x64, 0x65, 0x6e, 0x73, 0x65, 0x5f, 0x35, 
	0x2f, 0x52, 0x65, 0x6c, 0x75, 0x3b, 0x73, 0x65, 0x71, 0x75, 0x65, 0x6e, 0x74, 0x69, 0x61, 0x6c, 0x5f, 0x31, 0x2f, 0x64, 
	0x65, 0x6e, 0x73, 0x65, 0x5f, 0x35, 0x2f, 0x42, 0x69, 0x61, 0x73, 0x41, 0x64, 0x64, 0x00, 0x00, 0x02, 0x00, 0x00, 0x00, 
	0x01, 0x00, 0x00, 0x00, 0x04, 0x00, 0x00, 0x00, 0x6a, 0xfd, 0xff, 0xff, 0x10, 0x00, 0x00, 0x00, 0x10, 0x00, 0x00, 0x00, 
	0x0b, 0x00, 0x00, 0x00, 0x28, 0x00, 0x00, 0x00, 0xe8, 0xfc, 0xff, 0xff, 0x1b, 0x00, 0x00, 0x00, 0x73, 0x65, 0x71, 0x75, 
	0x65, 0x6e, 0x74, 0x69, 0x61, 0x6c, 0x5f, 0x31, 0x2f, 0x64, 0x65, 0x6e, 0x73, 0x65, 0x5f, 0x39, 0x2f, 0x4d, 0x61, 0x74, 
	0x4d, 0x75, 0x6c, 0x00, 0x02, 0x00, 0x00, 0x00, 0x02, 0x00, 0x00, 0x00, 0x08, 0x00, 0x00, 0x00, 0xae, 0xfd, 0xff, 0xff, 
	0x10, 0x00, 0x00, 0x00, 0x10, 0x00, 0x00, 0x00, 0x0a, 0x00, 0x00, 0x00, 0x28, 0x00, 0x00, 0x00, 0x2c, 0xfd, 0xff, 0xff, 
	0x1b, 0x00, 0x00, 0x00, 0x73, 0x65, 0x71, 0x75, 0x65, 0x6e, 0x74, 0x69, 0x61, 0x6c, 0x5f, 0x31, 0x2f, 0x64, 0x65, 0x6e, 
	0x73, 0x65, 0x5f, 0x38, 0x2f, 0x4d, 0x61, 0x74, 0x4d, 0x75, 0x6c, 0x00, 0x02, 0x00, 0x00, 0x00, 0x08, 0x00, 0x00, 0x00, 
	0x10, 0x00, 0x00, 0x00, 0xf2, 0xfd, 0xff, 0xff, 0x10, 0x00, 0x00, 0x00, 0x10, 0x00, 0x00, 0x00, 0x09, 0x00, 0x00, 0x00, 
	0x28, 0x00, 0x00, 0x00, 0x70, 0xfd, 0xff, 0xff, 0x1b, 0x00, 0x00, 0x00, 0x73, 0x65, 0x71, 0x75, 0x65, 0x6e, 0x74, 0x69, 
	0x61, 0x6c, 0x5f, 0x31, 0x2f, 0x64, 0x65, 0x6e, 0x73, 0x65, 0x5f, 0x37, 0x2f, 0x4d, 0x61, 0x74, 0x4d, 0x75, 0x6c, 0x00, 
	0x02, 0x00, 0x00, 0x00, 0x10, 0x00, 0x00, 0x00, 0x08, 0x00, 0x00, 0x00, 0x36, 0xfe, 0xff, 0xff, 0x10, 0x00, 0x00, 0x00, 
	0x10, 0x00, 0x00, 0x00, 0x08, 0x00, 0x00, 0x00, 0x28, 0x00, 0x00, 0x00, 0xb4, 0xfd, 0xff, 0xff, 0x1b, 0x00, 0x00, 0x00, 
	0x73, 0x65, 0x71, 0x75, 0x65, 0x6e, 0x74, 0x69, 0x61, 0x6c, 0x5f, 0x31, 0x2f, 0x64, 0x65, 0x6e, 0x73, 0x65, 0x5f, 0x36, 
	0x2f, 0x4d, 0x61, 0x74, 0x4d, 0x75, 0x6c, 0x00, 0x02, 0x00, 0x00, 0x00, 0x08, 0x00, 0x00, 0x00, 0x04, 0x00, 0x00, 0x00, 
	0x7a, 0xfe, 0xff, 0xff, 0x10, 0x00, 0x00, 0x00, 0x10, 0x00, 0x00, 0x00, 0x07, 0x00, 0x00, 0x00, 0x28, 0x00, 0x00, 0x00, 
	0xf8, 0xfd, 0xff, 0xff, 0x1b, 0x00, 0x00, 0x00, 0x73, 0x65, 0x71, 0x75, 0x65, 0x6e, 0x74, 0x69, 0x61, 0x6c, 0x5f, 0x31, 
	0x2f, 0x64, 0x65, 0x6e, 0x73, 0x65, 0x5f, 0x35, 0x2f, 0x4d, 0x61, 0x74, 0x4d, 0x75, 0x6c, 0x00, 0x02, 0x00, 0x00, 0x00, 
	0x04, 0x00, 0x00, 0x00, 0x10, 0x00, 0x00, 0x00, 0xbe, 0xfe, 0xff, 0xff, 0x10, 0x00, 0x00, 0x00, 0x10, 0x00, 0x00, 0x00, 
	0x06, 0x00, 0x00, 0x00, 0x38, 0x00, 0x00, 0x00, 0x3c, 0xfe, 0xff, 0xff, 0x2b, 0x00, 0x00, 0x00, 0x73, 0x65, 0x71, 0x75, 
	0x65, 0x6e, 0x74, 0x69, 0x61, 0x6c, 0x5f, 0x31, 0x2f, 0x64, 0x65, 0x6e, 0x73, 0x65, 0x5f, 0x35, 0x2f, 0x42, 0x69, 0x61, 
	0x73, 0x41, 0x64, 0x64, 0x2f, 0x52, 0x65, 0x61, 0x64, 0x56, 0x61, 0x72, 0x69, 0x61, 0x62, 0x6c, 0x65, 0x4f, 0x70, 0x00, 
	0x01, 0x00, 0x00, 0x00, 0x04, 0x00, 0x00, 0x00, 0x0e, 0xff, 0xff, 0xff, 0x10, 0x00, 0x00, 0x00, 0x10, 0x00, 0x00, 0x00, 
	0x05, 0x00, 0x00, 0x00, 0x38, 0x00, 0x00, 0x00, 0x8c, 0xfe, 0xff, 0xff, 0x2b, 0x00, 0x00, 0x00, 0x73, 0x65, 0x71, 0x75, 
	0x65, 0x6e, 0x74, 0x69, 0x61, 0x6c, 0x5f, 0x31, 0x2f, 0x64, 0x65, 0x6e, 0x73, 0x65, 0x5f, 0x36, 0x2f, 0x42, 0x69, 0x61, 
	0x73, 0x41, 0x64, 0x64, 0x2f, 0x52, 0x65, 0x61, 0x64, 0x56, 0x61, 0x72, 0x69, 0x61, 0x62, 0x6c, 0x65, 0x4f, 0x70, 0x00, 
	0x01, 0x00, 0x00, 0x00, 0x08, 0x00, 0x00, 0x00, 0x5e, 0xff, 0xff, 0xff, 0x10, 0x00, 0x00, 0x00, 0x10, 0x00, 0x00, 0x00, 
	0x04, 0x00, 0x00, 0x00, 0x38, 0x00, 0x00, 0x00, 0xdc, 0xfe, 0xff, 0xff, 0x2b, 0x00, 0x00, 0x00, 0x73, 0x65, 0x71, 0x75, 
	0x65, 0x6e, 0x74, 0x69, 0x61, 0x6c, 0x5f, 0x31, 0x2f, 0x64, 0x65, 0x6e, 0x73, 0x65, 0x5f, 0x37, 0x2f, 0x42, 0x69, 0x61, 
	0x73, 0x41, 0x64, 0x64, 0x2f, 0x52, 0x65, 0x61, 0x64, 0x56, 0x61, 0x72, 0x69, 0x61, 0x62, 0x6c, 0x65, 0x4f, 0x70, 0x00, 
	0x01, 0x00, 0x00, 0x00, 0x10, 0x00, 0x00, 0x00, 0xae, 0xff, 0xff, 0xff, 0x10, 0x00, 0x00, 0x00, 0x10, 0x00, 0x00, 0x00, 
	0x03, 0x00, 0x00, 0x00, 0x38, 0x00, 0x00, 0x00, 0x2c, 0xff, 0xff, 0xff, 0x2b, 0x00, 0x00, 0x00, 0x73, 0x65, 0x71, 0x75, 
	0x65, 0x6e, 0x74, 0x69, 0x61, 0x6c, 0x5f, 0x31, 0x2f, 0x64, 0x65, 0x6e, 0x73, 0x65, 0x5f, 0x38, 0x2f, 0x42, 0x69, 0x61, 
	0x73, 0x41, 0x64, 0x64, 0x2f, 0x52, 0x65, 0x61, 0x64, 0x56, 0x61, 0x72, 0x69, 0x61, 0x62, 0x6c, 0x65, 0x4f, 0x70, 0x00, 
	0x01, 0x00, 0x00, 0x00, 0x08, 0x00, 0x00, 0x00, 0x00, 0x00, 0x0e, 0x00, 0x14, 0x00, 0x10, 0x00, 0x00, 0x00, 0x0c, 0x00, 
	0x08, 0x00, 0x04, 0x00, 0x0e, 0x00, 0x00, 0x00, 0x10, 0x00, 0x00, 0x00, 0x10, 0x00, 0x00, 0x00, 0x02, 0x00, 0x00, 0x00, 
	0x38, 0x00, 0x00, 0x00, 0x8c, 0xff, 0xff, 0xff, 0x2b, 0x00, 0x00, 0x00, 0x73, 0x65, 0x71, 0x75, 0x65, 0x6e, 0x74, 0x69, 
	0x61, 0x6c, 0x5f, 0x31, 0x2f, 0x64, 0x65, 0x6e, 0x73, 0x65, 0x5f, 0x39, 0x2f, 0x42, 0x69, 0x61, 0x73, 0x41, 0x64, 0x64, 
	0x2f, 0x52, 0x65, 0x61, 0x64, 0x56, 0x61, 0x72, 0x69, 0x61, 0x62, 0x6c, 0x65, 0x4f, 0x70, 0x00, 0x01, 0x00, 0x00, 0x00, 
	0x02, 0x00, 0x00, 0x00, 0x14, 0x00, 0x18, 0x00, 0x14, 0x00, 0x00, 0x00, 0x10, 0x00, 0x0c, 0x00, 0x08, 0x00, 0x00, 0x00, 
	0x00, 0x00, 0x04, 0x00, 0x14, 0x00, 0x00, 0x00, 0x14, 0x00, 0x00, 0x00, 0x20, 0x00, 0x00, 0x00, 0x20, 0x00, 0x00, 0x00, 
	0x01, 0x00, 0x00, 0x00, 0x3c, 0x00, 0x00, 0x00, 0x02, 0x00, 0x00, 0x00, 0xff, 0xff, 0xff, 0xff, 0x10, 0x00, 0x00, 0x00, 
	0x04, 0x00, 0x04, 0x00, 0x04, 0x00, 0x00, 0x00, 0x1f, 0x00, 0x00, 0x00, 0x73, 0x65, 0x72, 0x76, 0x69, 0x6e, 0x67, 0x5f, 
	0x64, 0x65, 0x66, 0x61, 0x75, 0x6c, 0x74, 0x5f, 0x64, 0x65, 0x6e, 0x73, 0x65, 0x5f, 0x35, 0x5f, 0x69, 0x6e, 0x70, 0x75, 
	0x74, 0x3a, 0x30, 0x00, 0x02, 0x00, 0x00, 0x00, 0x01, 0x00, 0x00, 0x00, 0x10, 0x00, 0x00, 0x00, 0x02, 0x00, 0x00, 0x00, 
	0x20, 0x00, 0x00, 0x00, 0x04, 0x00, 0x00, 0x00, 0xf4, 0xff, 0xff, 0xff, 0x19, 0x00, 0x00, 0x00, 0x00, 0x00, 0x00, 0x19, 
	0x0c, 0x00, 0x0c, 0x00, 0x0b, 0x00, 0x00, 0x00, 0x00, 0x00, 0x04, 0x00, 0x0c, 0x00, 0x00, 0x00, 0x09, 0x00, 0x00, 0x00, 
	0x00, 0x00, 0x00, 0x09};


const uint8_t * GetModelPointer()
{
    return g_Model;
}

size_t GetModelLen()
{
    return sizeof(g_Model);
}


const float GetThreshold()
{
    return 0.0;
}                    
                    
const float GetMaxValTrain()
{
    return 3158.1043774;
}

const uint8_t GetFrameLenSample()
{
    return 300;
}

const float GetMinValTrain()
{
    return -0.619863934954322;
}

