#include <cstdint>
#include <cstddef>
#include "BufAttributes.h"

static const uint8_t g_Model[] ALIGNMENT_ATTRIBUTE =  {
	0x1c, 0x00, 0x00, 0x00, 0x54, 0x46, 0x4c, 0x33, 0x14, 0x00, 0x20, 0x00, 0x1c, 0x00, 0x18, 0x00, 0x14, 0x00, 0x10, 0x00, 
	0x0c, 0x00, 0x00, 0x00, 0x08, 0x00, 0x04, 0x00, 0x14, 0x00, 0x00, 0x00, 0x1c, 0x00, 0x00, 0x00, 0x80, 0x00, 0x00, 0x00, 
	0xd8, 0x00, 0x00, 0x00, 0x24, 0x08, 0x00, 0x00, 0x34, 0x08, 0x00, 0x00, 0x7c, 0x10, 0x00, 0x00, 0x03, 0x00, 0x00, 0x00, 
	0x01, 0x00, 0x00, 0x00, 0x04, 0x00, 0x00, 0x00, 0x86, 0xf7, 0xff, 0xff, 0x0c, 0x00, 0x00, 0x00, 0x1c, 0x00, 0x00, 0x00, 
	0x38, 0x00, 0x00, 0x00, 0x0f, 0x00, 0x00, 0x00, 0x73, 0x65, 0x72, 0x76, 0x69, 0x6e, 0x67, 0x5f, 0x64, 0x65, 0x66, 0x61, 
	0x75, 0x6c, 0x74, 0x00, 0x01, 0x00, 0x00, 0x00, 0x04, 0x00, 0x00, 0x00, 0x9c, 0xff, 0xff, 0xff, 0x10, 0x00, 0x00, 0x00, 
	0x04, 0x00, 0x00, 0x00, 0x07, 0x00, 0x00, 0x00, 0x64, 0x65, 0x6e, 0x73, 0x65, 0x5f, 0x39, 0x00, 0x01, 0x00, 0x00, 0x00, 
	0x04, 0x00, 0x00, 0x00, 0x9a, 0xf8, 0xff, 0xff, 0x04, 0x00, 0x00, 0x00, 0x07, 0x00, 0x00, 0x00, 0x69, 0x6e, 0x70, 0x75, 
	0x74, 0x5f, 0x32, 0x00, 0x02, 0x00, 0x00, 0x00, 0x34, 0x00, 0x00, 0x00, 0x04, 0x00, 0x00, 0x00, 0xdc, 0xff, 0xff, 0xff, 
	0x13, 0x00, 0x00, 0x00, 0x04, 0x00, 0x00, 0x00, 0x13, 0x00, 0x00, 0x00, 0x43, 0x4f, 0x4e, 0x56, 0x45, 0x52, 0x53, 0x49, 
	0x4f, 0x4e, 0x5f, 0x4d, 0x45, 0x54, 0x41, 0x44, 0x41, 0x54, 0x41, 0x00, 0x08, 0x00, 0x0c, 0x00, 0x08, 0x00, 0x04, 0x00, 
	0x08, 0x00, 0x00, 0x00, 0x12, 0x00, 0x00, 0x00, 0x04, 0x00, 0x00, 0x00, 0x13, 0x00, 0x00, 0x00, 0x6d, 0x69, 0x6e, 0x5f, 
	0x72, 0x75, 0x6e, 0x74, 0x69, 0x6d, 0x65, 0x5f, 0x76, 0x65, 0x72, 0x73, 0x69, 0x6f, 0x6e, 0x00, 0x14, 0x00, 0x00, 0x00, 
	0x48, 0x07, 0x00, 0x00, 0x40, 0x07, 0x00, 0x00, 0xf0, 0x06, 0x00, 0x00, 0xb8, 0x06, 0x00, 0x00, 0x98, 0x06, 0x00, 0x00, 
	0x78, 0x06, 0x00, 0x00, 0x48, 0x06, 0x00, 0x00, 0x38, 0x04, 0x00, 0x00, 0xa8, 0x03, 0x00, 0x00, 0x58, 0x03, 0x00, 0x00, 
	0xc8, 0x02, 0x00, 0x00, 0xb8, 0x00, 0x00, 0x00, 0xb0, 0x00, 0x00, 0x00, 0xa8, 0x00, 0x00, 0x00, 0xa0, 0x00, 0x00, 0x00, 
	0x98, 0x00, 0x00, 0x00, 0x90, 0x00, 0x00, 0x00, 0x88, 0x00, 0x00, 0x00, 0x68, 0x00, 0x00, 0x00, 0x04, 0x00, 0x00, 0x00, 
	0x5e, 0xf9, 0xff, 0xff, 0x04, 0x00, 0x00, 0x00, 0x54, 0x00, 0x00, 0x00, 0x0c, 0x00, 0x00, 0x00, 0x08, 0x00, 0x0e, 0x00, 
	0x08, 0x00, 0x04, 0x00, 0x08, 0x00, 0x00, 0x00, 0x10, 0x00, 0x00, 0x00, 0x24, 0x00, 0x00, 0x00, 0x00, 0x00, 0x06, 0x00, 
	0x08, 0x00, 0x04, 0x00, 0x06, 0x00, 0x00, 0x00, 0x04, 0x00, 0x00, 0x00, 0x00, 0x00, 0x00, 0x00, 0x00, 0x00, 0x0a, 0x00, 
	0x10, 0x00, 0x0c, 0x00, 0x08, 0x00, 0x04, 0x00, 0x0a, 0x00, 0x00, 0x00, 0x02, 0x00, 0x00, 0x00, 0x02, 0x00, 0x00, 0x00, 
	0x04, 0x00, 0x00, 0x00, 0x05, 0x00, 0x00, 0x00, 0x32, 0x2e, 0x39, 0x2e, 0x31, 0x00, 0x00, 0x00, 0xbe, 0xf9, 0xff, 0xff, 
	0x04, 0x00, 0x00, 0x00, 0x10, 0x00, 0x00, 0x00, 0x31, 0x2e, 0x31, 0x34, 0x2e, 0x30, 0x00, 0x00, 0x00, 0x00, 0x00, 0x00, 
	0x00, 0x00, 0x00, 0x00, 0x54, 0xf1, 0xff, 0xff, 0x58, 0xf1, 0xff, 0xff, 0x5c, 0xf1, 0xff, 0xff, 0x60, 0xf1, 0xff, 0xff, 
	0x64, 0xf1, 0xff, 0xff, 0x68, 0xf1, 0xff, 0xff, 0xf2, 0xf9, 0xff, 0xff, 0x04, 0x00, 0x00, 0x00, 0x00, 0x02, 0x00, 0x00, 
	0x06, 0x94, 0x92, 0x3d, 0xc8, 0xe4, 0x9e, 0x3e, 0xb0, 0x18, 0x0f, 0xbf, 0x80, 0xb9, 0xa0, 0xbd, 0x82, 0xce, 0x96, 0x3e, 
	0x48, 0x0d, 0xed, 0xbe, 0x2c, 0x87, 0x12, 0xbe, 0x40, 0xb7, 0xad, 0x3e, 0x56, 0x9c, 0xbc, 0xbd, 0x98, 0xb8, 0x29, 0xbe, 
	0x74, 0x98, 0x6d, 0xbd, 0x40, 0xd5, 0xce, 0x3d, 0x08, 0xdb, 0x07, 0xbe, 0xe8, 0x0e, 0xfb, 0x3e, 0x8d, 0xdf, 0x1d, 0x3d, 
	0x00, 0x5a, 0x32, 0xbe, 0x2b, 0x3a, 0x01, 0xbf, 0xc0, 0x98, 0x16, 0xbe, 0xde, 0xdf, 0x85, 0x39, 0x40, 0xa7, 0xf4, 0x3c, 
	0x81, 0xce, 0x9c, 0xbd, 0x40, 0x03, 0x98, 0x3d, 0xa8, 0x7c, 0xa0, 0x3e, 0x60, 0x59, 0x7a, 0x3e, 0x3d, 0x0d, 0xa0, 0xbd, 
	0x38, 0xe0, 0xba, 0x3e, 0x63, 0x45, 0xa4, 0xbe, 0xf0, 0x40, 0x95, 0x3d, 0x5a, 0xc4, 0x76, 0xbe, 0x40, 0x5a, 0xb7, 0x3c, 
	0x5f, 0x70, 0xb5, 0x3e, 0x1c, 0x6b, 0xa4, 0xbe, 0x43, 0x5a, 0x42, 0xbf, 0x78, 0x83, 0x15, 0xbe, 0x2b, 0xc1, 0x67, 0xbe, 
	0x78, 0xf1, 0x77, 0xbe, 0xa9, 0xbe, 0xf6, 0xbe, 0xb4, 0x01, 0x98, 0xbe, 0x9b, 0x79, 0x29, 0xbe, 0x68, 0xc3, 0x90, 0x3e, 
	0xb7, 0x98, 0xac, 0xbe, 0xfc, 0x0b, 0xa2, 0x3e, 0xa0, 0xf3, 0x16, 0xbf, 0x30, 0xd4, 0x91, 0x3d, 0xf2, 0x04, 0x52, 0xbe, 
	0x80, 0x9a, 0xf8, 0x3c, 0xba, 0x3d, 0x0c, 0xbf, 0xbc, 0x95, 0xf4, 0x3e, 0xed, 0xf1, 0xd5, 0xbe, 0xb0, 0x6a, 0xad, 0x3e, 
	0xb2, 0xd8, 0x6e, 0xbe, 0x10, 0xef, 0xea, 0x3e, 0x03, 0xdc, 0xcd, 0xbe, 0xf0, 0xae, 0x94, 0xbd, 0x64, 0xec, 0x20, 0xbf, 
	0x80, 0x04, 0x9d, 0x3c, 0xee, 0x23, 0xa4, 0xbe, 0xe0, 0xdb, 0xfc, 0x3e, 0xf7, 0x4c, 0x71, 0xbe, 0x18, 0xe8, 0x29, 0x3e, 
	0x25, 0xe4, 0x90, 0xbe, 0x80, 0x61, 0x4c, 0x3c, 0x7f, 0x88, 0x57, 0xbf, 0xe0, 0xfb, 0xe5, 0x3e, 0xb2, 0x22, 0x1d, 0xbf, 
	0x00, 0xaf, 0x4e, 0xbd, 0x7d, 0x1d, 0xf2, 0xbe, 0x00, 0x00, 0xc1, 0x3d, 0xea, 0x41, 0x3b, 0xbf, 0x70, 0x39, 0xca, 0x3d, 
	0x52, 0x15, 0x20, 0x3f, 0x00, 0xd0, 0x2b, 0x3b, 0x53, 0x4e, 0x5e, 0xbf, 0xe4, 0x91, 0x99, 0xbe, 0x54, 0xbf, 0xfe, 0xbb, 
	0xa0, 0xeb, 0xde, 0x3e, 0xf8, 0x61, 0xa3, 0xbd, 0xa0, 0xc6, 0xe1, 0xbd, 0x5d, 0x48, 0xd8, 0xbe, 0x4c, 0x95, 0xbd, 0x3e, 
	0xc1, 0xb8, 0x3f, 0xbf, 0x28, 0x58, 0x82, 0x3e, 0x20, 0xa6, 0xf8, 0x3a, 0x8c, 0x29, 0xbb, 0xbe, 0xee, 0x20, 0x38, 0xbf, 
	0x40, 0x93, 0xd2, 0xbe, 0x64, 0xec, 0x4e, 0x3e, 0x68, 0x72, 0x66, 0x3e, 0x4d, 0xfe, 0x46, 0xbe, 0x88, 0x53, 0xa9, 0xbe, 
	0x6f, 0x44, 0x1e, 0xbe, 0xf0, 0x86, 0x38, 0x3e, 0xf4, 0x79, 0x46, 0xbf, 0x00, 0xad, 0x91, 0x3e, 0x38, 0xec, 0xe0, 0xbd, 
	0xb0, 0x42, 0x25, 0xbe, 0x26, 0xd2, 0x63, 0xbf, 0xc0, 0xec, 0x78, 0x3d, 0xf4, 0xd0, 0xf9, 0xbd, 0xfc, 0x97, 0xd2, 0xbe, 
	0x41, 0x5a, 0xee, 0xbe, 0x70, 0x92, 0x7f, 0x3e, 0xb2, 0xcf, 0x55, 0xbf, 0xe4, 0x59, 0xc5, 0xbe, 0x38, 0xc2, 0x60, 0xbf, 
	0x18, 0xb6, 0x7e, 0xbe, 0x45, 0xd1, 0xec, 0xbd, 0x90, 0x1f, 0xab, 0xbd, 0xbd, 0x21, 0x1b, 0xbe, 0x40, 0x90, 0x39, 0x3d, 
	0x31, 0x8e, 0x8b, 0xbf, 0xa0, 0x68, 0x60, 0xbe, 0xaf, 0xcd, 0x02, 0xbe, 0xa0, 0x7f, 0xf4, 0xbe, 0x7e, 0x7b, 0x2d, 0xbf, 
	0xa8, 0x27, 0xf9, 0x3e, 0x21, 0x82, 0x6c, 0xbe, 0xa0, 0xc8, 0xa7, 0x3e, 0x2d, 0x25, 0x9a, 0xbf, 0xb0, 0xf2, 0xa2, 0x3d, 
	0x30, 0x06, 0x00, 0xbf, 0x38, 0xcb, 0xbb, 0xbe, 0x45, 0x19, 0x0d, 0xbf, 0x70, 0xcb, 0xf5, 0xbd, 0x2e, 0xeb, 0x06, 0xbf, 
	0xf8, 0x5e, 0x28, 0xbe, 0x57, 0xda, 0x20, 0xbf, 0x30, 0x5a, 0x0a, 0x3e, 0xfe, 0xfb, 0xff, 0xff, 0x04, 0x00, 0x00, 0x00, 
	0x80, 0x00, 0x00, 0x00, 0x74, 0xcc, 0x19, 0x3f, 0x79, 0xf2, 0xf4, 0x3e, 0x4a, 0x83, 0x96, 0x3e, 0x07, 0xd3, 0x26, 0x3f, 
	0x30, 0x35, 0x02, 0xbf, 0x80, 0xf5, 0x62, 0x3e, 0x2f, 0x93, 0x21, 0x3f, 0x64, 0x04, 0xf5, 0xbe, 0x03, 0xed, 0x55, 0x3f, 
	0x96, 0x0d, 0x31, 0x3f, 0x32, 0x6c, 0x9d, 0x3e, 0xe8, 0x4b, 0x03, 0x3f, 0xdd, 0x58, 0xb3, 0xbe, 0x80, 0xed, 0x6b, 0xbd, 
	0x5c, 0x2c, 0x32, 0x3e, 0x18, 0x84, 0x1a, 0xbf, 0xa3, 0x03, 0x2f, 0x3f, 0x4e, 0x78, 0x28, 0x3f, 0xd7, 0xbf, 0x84, 0xbe, 
	0x5f, 0x47, 0x12, 0x3f, 0x38, 0x68, 0xec, 0xbd, 0xdc, 0x14, 0x67, 0xbe, 0x94, 0xfd, 0x7e, 0x3e, 0x7a, 0xf1, 0xec, 0xbe, 
	0x55, 0xb6, 0x80, 0x3f, 0x8d, 0x3b, 0x13, 0x3f, 0x47, 0x88, 0x19, 0xbf, 0x03, 0x9a, 0x21, 0xbe, 0xd4, 0x02, 0x31, 0xbf, 
	0x0f, 0xa1, 0x15, 0x3f, 0x30, 0x9d, 0x15, 0xbf, 0xf6, 0x0f, 0x6a, 0xbe, 0x8a, 0xfc, 0xff, 0xff, 0x04, 0x00, 0x00, 0x00, 
	0x40, 0x00, 0x00, 0x00, 0x08, 0xd2, 0x09, 0xbe, 0xe0, 0x14, 0x56, 0x3f, 0xa3, 0x5a, 0x02, 0xbf, 0x09, 0xc3, 0xbe, 0xbe, 
	0x40, 0x6b, 0xf3, 0x3c, 0xe8, 0xd0, 0x34, 0x3f, 0xae, 0x02, 0xb9, 0x3e, 0x90, 0x7e, 0x3b, 0xbd, 0x77, 0x4a, 0x4a, 0x3f, 
	0x00, 0x74, 0xe4, 0xbc, 0x49, 0xe8, 0x2d, 0x3f, 0xef, 0x26, 0x2e, 0xbf, 0xfb, 0xd1, 0x06, 0x3f, 0xe0, 0x6b, 0x67, 0x3f, 
	0x2c, 0xb6, 0x1e, 0x3e, 0x8f, 0x06, 0x56, 0x3f, 0xd6, 0xfc, 0xff, 0xff, 0x04, 0x00, 0x00, 0x00, 0x80, 0x00, 0x00, 0x00, 
	0xfe, 0xa7, 0x18, 0xbf, 0x98, 0xfc, 0x1a, 0xbe, 0x0a, 0x44, 0x78, 0xbe, 0x44, 0xf1, 0xb7, 0xbe, 0x3d, 0x85, 0x2c, 0xbf, 
	0x60, 0x61, 0x42, 0xbd, 0x94, 0x9b, 0x70, 0x3e, 0x5d, 0xc4, 0x12, 0x3f, 0x85, 0x5d, 0x92, 0x3f, 0x30, 0x94, 0x12, 0x3f, 
	0xec, 0x88, 0x1a, 0xbf, 0x75, 0xe4, 0x81, 0x3f, 0x01, 0x79, 0x8e, 0x3f, 0x73, 0xfe, 0x20, 0xc0, 0x65, 0xb8, 0x10, 0x3f, 
	0x24, 0xae, 0x26, 0xbe, 0x2d, 0xec, 0x17, 0xbf, 0x06, 0x33, 0x93, 0xbe, 0x2a, 0xf6, 0xb0, 0xbe, 0x8c, 0xfd, 0x7c, 0xbe, 
	0xe0, 0xe0, 0x91, 0x3d, 0xa8, 0x9d, 0xba, 0xbe, 0x80, 0xe8, 0x05, 0xbc, 0xc0, 0x67, 0x58, 0xbc, 0x80, 0x55, 0xe2, 0xbb, 
	0x88, 0x7f, 0xdf, 0xbd, 0x80, 0x11, 0x9e, 0xbd, 0xc2, 0xb0, 0x1b, 0xbf, 0x0e, 0xe4, 0xfa, 0xbe, 0x20, 0x67, 0xf0, 0xbe, 
	0xba, 0x62, 0xf0, 0xbe, 0x90, 0xd8, 0x1a, 0xbd, 0x62, 0xfd, 0xff, 0xff, 0x04, 0x00, 0x00, 0x00, 0x00, 0x02, 0x00, 0x00, 
	0x4e, 0xd2, 0x79, 0x3e, 0x34, 0x67, 0x4a, 0x3f, 0x37, 0x0a, 0xcd, 0x3e, 0x90, 0x46, 0x0b, 0x3e, 0x36, 0xe9, 0x4d, 0x3f, 
	0xe1, 0xb0, 0xad, 0x3d, 0x79, 0xab, 0xda, 0x3e, 0x94, 0xb5, 0x23, 0xbd, 0x51, 0xd9, 0x97, 0x3d, 0xd6, 0x82, 0x91, 0x3e, 
	0x31, 0x35, 0x4f, 0xbe, 0x6b, 0x53, 0x30, 0x3f, 0x7e, 0xd8, 0x3e, 0x3f, 0x45, 0x04, 0x26, 0x3f, 0xd2, 0xd3, 0x36, 0x3f, 
	0x22, 0x70, 0x9e, 0x3f, 0xea, 0xff, 0x35, 0x3f, 0xf9, 0x99, 0x02, 0x3e, 0x4b, 0x76, 0xc6, 0x3e, 0x98, 0x35, 0xea, 0x3e, 
	0x22, 0x24, 0x76, 0x3f, 0x9f, 0x99, 0x6e, 0x3e, 0xdf, 0xe3, 0x56, 0x3e, 0xba, 0x0c, 0x14, 0x3f, 0x39, 0x62, 0x4f, 0x3e, 
	0x40, 0xf4, 0xd9, 0x3e, 0x46, 0xad, 0xde, 0x3e, 0x1f, 0x30, 0x6f, 0x3d, 0xbd, 0xf7, 0xd6, 0x3d, 0x94, 0x5f, 0x92, 0x3e, 
	0x29, 0x98, 0x06, 0x3f, 0x07, 0xe0, 0x4e, 0x3f, 0x44, 0x39, 0x47, 0x3d, 0x36, 0xd1, 0x93, 0xbe, 0x05, 0xeb, 0x5b, 0xbe, 
	0xb7, 0xb8, 0xa9, 0x3e, 0x58, 0x05, 0xc2, 0xbe, 0x59, 0xda, 0xc1, 0x3d, 0xa2, 0xb4, 0xdb, 0xbe, 0x8a, 0x70, 0x61, 0x3e, 
	0xc7, 0x77, 0x45, 0xbe, 0x33, 0x51, 0xac, 0xbe, 0xf0, 0xca, 0xe0, 0x3d, 0x85, 0xef, 0x24, 0xbe, 0xae, 0x89, 0xec, 0x3e, 
	0x20, 0x39, 0xb4, 0x3e, 0x35, 0x39, 0x00, 0xbf, 0x2e, 0x9c, 0xee, 0xbd, 0xea, 0x40, 0x64, 0x3f, 0x42, 0x02, 0x02, 0x3f, 
	0xc6, 0x2f, 0x15, 0xbd, 0xc3, 0xe2, 0xc6, 0x3e, 0xb5, 0x69, 0xeb, 0x3d, 0x0d, 0xb4, 0xcb, 0x3c, 0xff, 0xeb, 0x2c, 0x3e, 
	0x92, 0x58, 0x2c, 0x3f, 0xa5, 0x09, 0x35, 0x3f, 0xb3, 0x9a, 0xe1, 0x3e, 0xfd, 0x58, 0x2d, 0x3f, 0xa0, 0xfc, 0x4e, 0x3e, 
	0x83, 0xf5, 0xeb, 0xbc, 0x43, 0x3e, 0x3e, 0x3d, 0xab, 0xd8, 0x84, 0x3f, 0xd4, 0xcb, 0xa1, 0x3f, 0xb3, 0x92, 0x45, 0x3d, 
	0x88, 0x2e, 0x2f, 0xbd, 0x62, 0xfb, 0x35, 0x3f, 0x27, 0xa9, 0xc5, 0x3e, 0x51, 0x94, 0x5e, 0x3f, 0x44, 0xd1, 0x24, 0x3f, 
	0x13, 0xea, 0xa6, 0x3e, 0xf6, 0x42, 0x4b, 0xbd, 0x84, 0xa6, 0x30, 0x3d, 0xed, 0xd8, 0x94, 0xbb, 0x9a, 0x1c, 0xbd, 0x3e, 
	0x4c, 0x96, 0xf3, 0x3e, 0x25, 0x6f, 0x4d, 0x3e, 0xe8, 0x4d, 0x52, 0x3f, 0xb8, 0x28, 0xe4, 0x3e, 0xed, 0x74, 0x1c, 0x3f, 
	0x0f, 0xad, 0xbd, 0x3f, 0x0e, 0x08, 0x85, 0x3f, 0x22, 0x56, 0xf7, 0x3f, 0xcc, 0xcd, 0xcd, 0x3f, 0x2e, 0x44, 0x0c, 0x3f, 
	0xb0, 0xf9, 0x18, 0x3f, 0x70, 0xe1, 0xbb, 0x3f, 0x65, 0x59, 0xbc, 0x3f, 0x89, 0x39, 0xd9, 0x3f, 0x28, 0x81, 0x99, 0x3f, 
	0xae, 0x7a, 0xd8, 0x3f, 0x54, 0x1a, 0xb1, 0x3f, 0x70, 0xd1, 0xa3, 0x3c, 0x12, 0xd3, 0xaf, 0xbe, 0xab, 0xba, 0x60, 0xbf, 
	0x15, 0x50, 0x05, 0xc0, 0x40, 0xb5, 0xa8, 0x3d, 0xb0, 0x8d, 0x1e, 0xbe, 0xc4, 0x3b, 0x87, 0xbe, 0x50, 0x04, 0xcf, 0xbe, 
	0xa0, 0x5f, 0x08, 0xbd, 0x00, 0x1f, 0x9a, 0x3d, 0x50, 0x82, 0x5d, 0xbe, 0x40, 0x37, 0x84, 0xbc, 0x24, 0x3a, 0xaf, 0x3e, 
	0xdc, 0xe3, 0x9a, 0xbe, 0xd0, 0x13, 0xad, 0x3d, 0x00, 0xfa, 0x67, 0xbc, 0xac, 0x10, 0x83, 0xbe, 0x00, 0xf0, 0x5b, 0x3c, 
	0xc0, 0x97, 0xe6, 0xbd, 0x20, 0xf5, 0x38, 0xbe, 0xc0, 0x0f, 0x5b, 0xbd, 0x9c, 0x10, 0xcb, 0x3e, 0xa8, 0xdd, 0xb6, 0xbe, 
	0xf8, 0x24, 0x8c, 0xbe, 0xdc, 0x7b, 0xc6, 0xbe, 0xd8, 0x60, 0x5d, 0xbe, 0x18, 0x0d, 0xa9, 0xbe, 0xa0, 0x02, 0xe9, 0x3e, 
	0x08, 0x56, 0x9f, 0x3e, 0x00, 0x5c, 0xab, 0x3a, 0x80, 0x1f, 0xe6, 0x3e, 0x6c, 0x8c, 0x81, 0x3e, 0x00, 0x3c, 0x5d, 0xbc, 
	0xf0, 0xae, 0x4e, 0x3e, 0xb8, 0x49, 0xc4, 0x3e, 0xa0, 0x4e, 0xe4, 0xbd, 0x6e, 0xff, 0xff, 0xff, 0x04, 0x00, 0x00, 0x00, 
	0x20, 0x00, 0x00, 0x00, 0x29, 0x67, 0x12, 0x3f, 0x8a, 0x15, 0x2c, 0x3f, 0x09, 0x4d, 0x76, 0xbc, 0xc7, 0xea, 0x13, 0x3f, 
	0xfd, 0xef, 0x08, 0x3f, 0x7c, 0xfb, 0x58, 0xbf, 0x00, 0x00, 0x00, 0x00, 0x00, 0x00, 0x00, 0x00, 0x9a, 0xff, 0xff, 0xff, 
	0x04, 0x00, 0x00, 0x00, 0x10, 0x00, 0x00, 0x00, 0x00, 0x00, 0x00, 0x00, 0xc3, 0x71, 0x04, 0x3f, 0x00, 0x00, 0x00, 0x00, 
	0x00, 0x00, 0x00, 0x00, 0xb6, 0xff, 0xff, 0xff, 0x04, 0x00, 0x00, 0x00, 0x10, 0x00, 0x00, 0x00, 0x34, 0x6c, 0x03, 0x3f, 
	0xe4, 0x5d, 0xd4, 0x3e, 0x00, 0x00, 0x00, 0x00, 0x1d, 0x94, 0x9b, 0x3e, 0xd2, 0xff, 0xff, 0xff, 0x04, 0x00, 0x00, 0x00, 
	0x20, 0x00, 0x00, 0x00, 0xca, 0xf9, 0xa2, 0x3e, 0x00, 0x00, 0x00, 0x00, 0x7a, 0x23, 0x72, 0xbe, 0x00, 0x00, 0x00, 0x00, 
	0x73, 0xf1, 0xd9, 0x3e, 0x00, 0x00, 0x00, 0x00, 0x13, 0x70, 0x23, 0x3f, 0x00, 0x00, 0x00, 0x00, 0x00, 0x00, 0x06, 0x00, 
	0x08, 0x00, 0x04, 0x00, 0x06, 0x00, 0x00, 0x00, 0x04, 0x00, 0x00, 0x00, 0x40, 0x00, 0x00, 0x00, 0xb3, 0x27, 0xdf, 0x3e, 
	0x22, 0x5b, 0x43, 0x3e, 0x29, 0xbd, 0x00, 0x3e, 0xac, 0x77, 0x0f, 0x3f, 0x94, 0x49, 0x75, 0xbe, 0x9e, 0x44, 0xb1, 0xbe, 
	0x86, 0xc3, 0xb2, 0xbe, 0xe6, 0xe8, 0x98, 0xbe, 0x30, 0x99, 0xb6, 0xbe, 0x90, 0xa4, 0xb6, 0xbe, 0x3e, 0xef, 0xab, 0xbe, 
	0xcf, 0x75, 0xbb, 0xbe, 0x2c, 0xfa, 0x71, 0xbe, 0x38, 0xe0, 0x74, 0xbe, 0xfd, 0x50, 0x9b, 0xbe, 0x2d, 0x8f, 0x56, 0xbe, 
	0xcc, 0xf7, 0xff, 0xff, 0xd0, 0xf7, 0xff, 0xff, 0x0f, 0x00, 0x00, 0x00, 0x4d, 0x4c, 0x49, 0x52, 0x20, 0x43, 0x6f, 0x6e, 
	0x76, 0x65, 0x72, 0x74, 0x65, 0x64, 0x2e, 0x00, 0x01, 0x00, 0x00, 0x00, 0x14, 0x00, 0x00, 0x00, 0x00, 0x00, 0x0e, 0x00, 
	0x18, 0x00, 0x14, 0x00, 0x10, 0x00, 0x0c, 0x00, 0x08, 0x00, 0x04, 0x00, 0x0e, 0x00, 0x00, 0x00, 0x14, 0x00, 0x00, 0x00, 
	0x1c, 0x00, 0x00, 0x00, 0x78, 0x01, 0x00, 0x00, 0x7c, 0x01, 0x00, 0x00, 0x80, 0x01, 0x00, 0x00, 0x04, 0x00, 0x00, 0x00, 
	0x6d, 0x61, 0x69, 0x6e, 0x00, 0x00, 0x00, 0x00, 0x06, 0x00, 0x00, 0x00, 0x20, 0x01, 0x00, 0x00, 0xd8, 0x00, 0x00, 0x00, 
	0xa0, 0x00, 0x00, 0x00, 0x68, 0x00, 0x00, 0x00, 0x34, 0x00, 0x00, 0x00, 0x10, 0x00, 0x00, 0x00, 0x00, 0x00, 0x0a, 0x00, 
	0x10, 0x00, 0x0c, 0x00, 0x08, 0x00, 0x04, 0x00, 0x0a, 0x00, 0x00, 0x00, 0x0c, 0x00, 0x00, 0x00, 0x10, 0x00, 0x00, 0x00, 
	0x01, 0x00, 0x00, 0x00, 0x01, 0x00, 0x00, 0x00, 0x10, 0x00, 0x00, 0x00, 0x01, 0x00, 0x00, 0x00, 0x0f, 0x00, 0x00, 0x00, 
	0x32, 0xff, 0xff, 0xff, 0x10, 0x00, 0x00, 0x00, 0x00, 0x00, 0x00, 0x08, 0x0c, 0x00, 0x00, 0x00, 0x10, 0x00, 0x00, 0x00, 
	0x80, 0xf8, 0xff, 0xff, 0x01, 0x00, 0x00, 0x00, 0x0f, 0x00, 0x00, 0x00, 0x03, 0x00, 0x00, 0x00, 0x0e, 0x00, 0x00, 0x00, 
	0x0a, 0x00, 0x00, 0x00, 0x01, 0x00, 0x00, 0x00, 0x62, 0xff, 0xff, 0xff, 0x10, 0x00, 0x00, 0x00, 0x00, 0x00, 0x00, 0x08, 
	0x10, 0x00, 0x00, 0x00, 0x14, 0x00, 0x00, 0x00, 0x52, 0xff, 0xff, 0xff, 0x00, 0x00, 0x00, 0x01, 0x01, 0x00, 0x00, 0x00, 
	0x0e, 0x00, 0x00, 0x00, 0x03, 0x00, 0x00, 0x00, 0x0d, 0x00, 0x00, 0x00, 0x09, 0x00, 0x00, 0x00, 0x02, 0x00, 0x00, 0x00, 
	0x96, 0xff, 0xff, 0xff, 0x10, 0x00, 0x00, 0x00, 0x00, 0x00, 0x00, 0x08, 0x10, 0x00, 0x00, 0x00, 0x14, 0x00, 0x00, 0x00, 
	0x86, 0xff, 0xff, 0xff, 0x00, 0x00, 0x00, 0x01, 0x01, 0x00, 0x00, 0x00, 0x0d, 0x00, 0x00, 0x00, 0x03, 0x00, 0x00, 0x00, 
	0x0c, 0x00, 0x00, 0x00, 0x08, 0x00, 0x00, 0x00, 0x03, 0x00, 0x00, 0x00, 0xca, 0xff, 0xff, 0xff, 0x10, 0x00, 0x00, 0x00, 
	0x00, 0x00, 0x00, 0x08, 0x10, 0x00, 0x00, 0x00, 0x14, 0x00, 0x00, 0x00, 0xba, 0xff, 0xff, 0xff, 0x00, 0x00, 0x00, 0x01, 
	0x01, 0x00, 0x00, 0x00, 0x0c, 0x00, 0x00, 0x00, 0x03, 0x00, 0x00, 0x00, 0x0b, 0x00, 0x00, 0x00, 0x07, 0x00, 0x00, 0x00, 
	0x04, 0x00, 0x00, 0x00, 0x00, 0x00, 0x0e, 0x00, 0x16, 0x00, 0x00, 0x00, 0x10, 0x00, 0x0c, 0x00, 0x0b, 0x00, 0x04, 0x00, 
	0x0e, 0x00, 0x00, 0x00, 0x18, 0x00, 0x00, 0x00, 0x00, 0x00, 0x00, 0x08, 0x18, 0x00, 0x00, 0x00, 0x1c, 0x00, 0x00, 0x00, 
	0x00, 0x00, 0x06, 0x00, 0x08, 0x00, 0x07, 0x00, 0x06, 0x00, 0x00, 0x00, 0x00, 0x00, 0x00, 0x01, 0x01, 0x00, 0x00, 0x00, 
	0x0b, 0x00, 0x00, 0x00, 0x03, 0x00, 0x00, 0x00, 0x00, 0x00, 0x00, 0x00, 0x06, 0x00, 0x00, 0x00, 0x05, 0x00, 0x00, 0x00, 
	0x01, 0x00, 0x00, 0x00, 0x10, 0x00, 0x00, 0x00, 0x01, 0x00, 0x00, 0x00, 0x00, 0x00, 0x00, 0x00, 0x11, 0x00, 0x00, 0x00, 
	0x44, 0x06, 0x00, 0x00, 0xdc, 0x05, 0x00, 0x00, 0x78, 0x05, 0x00, 0x00, 0x24, 0x05, 0x00, 0x00, 0xd0, 0x04, 0x00, 0x00, 
	0x7c, 0x04, 0x00, 0x00, 0x34, 0x04, 0x00, 0x00, 0xec, 0x03, 0x00, 0x00, 0xa4, 0x03, 0x00, 0x00, 0x5c, 0x03, 0x00, 0x00, 
	0x14, 0x03, 0x00, 0x00, 0x84, 0x02, 0x00, 0x00, 0xf4, 0x01, 0x00, 0x00, 0x64, 0x01, 0x00, 0x00, 0xd4, 0x00, 0x00, 0x00, 
	0x5c, 0x00, 0x00, 0x00, 0x04, 0x00, 0x00, 0x00, 0x14, 0xfa, 0xff, 0xff, 0x14, 0x00, 0x00, 0x00, 0x1c, 0x00, 0x00, 0x00, 
	0x1c, 0x00, 0x00, 0x00, 0x11, 0x00, 0x00, 0x00, 0x34, 0x00, 0x00, 0x00, 0x02, 0x00, 0x00, 0x00, 0xff, 0xff, 0xff, 0xff, 
	0x10, 0x00, 0x00, 0x00, 0x00, 0xfa, 0xff, 0xff, 0x19, 0x00, 0x00, 0x00, 0x53, 0x74, 0x61, 0x74, 0x65, 0x66, 0x75, 0x6c, 
	0x50, 0x61, 0x72, 0x74, 0x69, 0x74, 0x69, 0x6f, 0x6e, 0x65, 0x64, 0x43, 0x61, 0x6c, 0x6c, 0x3a, 0x30, 0x00, 0x00, 0x00, 
	0x02, 0x00, 0x00, 0x00, 0x01, 0x00, 0x00, 0x00, 0x10, 0x00, 0x00, 0x00, 0x68, 0xfa, 0xff, 0xff, 0x14, 0x00, 0x00, 0x00, 
	0x1c, 0x00, 0x00, 0x00, 0x1c, 0x00, 0x00, 0x00, 0x10, 0x00, 0x00, 0x00, 0x54, 0x00, 0x00, 0x00, 0x02, 0x00, 0x00, 0x00, 
	0xff, 0xff, 0xff, 0xff, 0x10, 0x00, 0x00, 0x00, 0x54, 0xfa, 0xff, 0xff, 0x38, 0x00, 0x00, 0x00, 0x73, 0x65, 0x71, 0x75, 
	0x65, 0x6e, 0x74, 0x69, 0x61, 0x6c, 0x5f, 0x31, 0x2f, 0x64, 0x65, 0x6e, 0x73, 0x65, 0x5f, 0x39, 0x2f, 0x4d, 0x61, 0x74, 
	0x4d, 0x75, 0x6c, 0x3b, 0x73, 0x65, 0x71, 0x75, 0x65, 0x6e, 0x74, 0x69, 0x61, 0x6c, 0x5f, 0x31, 0x2f, 0x64, 0x65, 0x6e, 
	0x73, 0x65, 0x5f, 0x39, 0x2f, 0x42, 0x69, 0x61, 0x73, 0x41, 0x64, 0x64, 0x00, 0x00, 0x00, 0x00, 0x02, 0x00, 0x00, 0x00, 
	0x01, 0x00, 0x00, 0x00, 0x10, 0x00, 0x00, 0x00, 0xdc, 0xfa, 0xff, 0xff, 0x14, 0x00, 0x00, 0x00, 0x1c, 0x00, 0x00, 0x00, 
	0x1c, 0x00, 0x00, 0x00, 0x0f, 0x00, 0x00, 0x00, 0x6c, 0x00, 0x00, 0x00, 0x02, 0x00, 0x00, 0x00, 0xff, 0xff, 0xff, 0xff, 
	0x08, 0x00, 0x00, 0x00, 0xc8, 0xfa, 0xff, 0xff, 0x52, 0x00, 0x00, 0x00, 0x73, 0x65, 0x71, 0x75, 0x65, 0x6e, 0x74, 0x69, 
	0x61, 0x6c, 0x5f, 0x31, 0x2f, 0x64, 0x65, 0x6e, 0x73, 0x65, 0x5f, 0x38, 0x2f, 0x4d, 0x61, 0x74, 0x4d, 0x75, 0x6c, 0x3b, 
	0x73, 0x65, 0x71, 0x75, 0x65, 0x6e, 0x74, 0x69, 0x61, 0x6c, 0x5f, 0x31, 0x2f, 0x64, 0x65, 0x6e, 0x73, 0x65, 0x5f, 0x38, 
	0x2f, 0x52, 0x65, 0x6c, 0x75, 0x3b, 0x73, 0x65, 0x71, 0x75, 0x65, 0x6e, 0x74, 0x69, 0x61, 0x6c, 0x5f, 0x31, 0x2f, 0x64, 
	0x65, 0x6e, 0x73, 0x65, 0x5f, 0x38, 0x2f, 0x42, 0x69, 0x61, 0x73, 0x41, 0x64, 0x64, 0x00, 0x00, 0x02, 0x00, 0x00, 0x00, 
	0x01, 0x00, 0x00, 0x00, 0x08, 0x00, 0x00, 0x00, 0x68, 0xfb, 0xff, 0xff, 0x14, 0x00, 0x00, 0x00, 0x1c, 0x00, 0x00, 0x00, 
	0x1c, 0x00, 0x00, 0x00, 0x0e, 0x00, 0x00, 0x00, 0x6c, 0x00, 0x00, 0x00, 0x02, 0x00, 0x00, 0x00, 0xff, 0xff, 0xff, 0xff, 
	0x04, 0x00, 0x00, 0x00, 0x54, 0xfb, 0xff, 0xff, 0x52, 0x00, 0x00, 0x00, 0x73, 0x65, 0x71, 0x75, 0x65, 0x6e, 0x74, 0x69, 
	0x61, 0x6c, 0x5f, 0x31, 0x2f, 0x64, 0x65, 0x6e, 0x73, 0x65, 0x5f, 0x37, 0x2f, 0x4d, 0x61, 0x74, 0x4d, 0x75, 0x6c, 0x3b, 
	0x73, 0x65, 0x71, 0x75, 0x65, 0x6e, 0x74, 0x69, 0x61, 0x6c, 0x5f, 0x31, 0x2f, 0x64, 0x65, 0x6e, 0x73, 0x65, 0x5f, 0x37, 
	0x2f, 0x52, 0x65, 0x6c, 0x75, 0x3b, 0x73, 0x65, 0x71, 0x75, 0x65, 0x6e, 0x74, 0x69, 0x61, 0x6c, 0x5f, 0x31, 0x2f, 0x64, 
	0x65, 0x6e, 0x73, 0x65, 0x5f, 0x37, 0x2f, 0x42, 0x69, 0x61, 0x73, 0x41, 0x64, 0x64, 0x00, 0x00, 0x02, 0x00, 0x00, 0x00, 
	0x01, 0x00, 0x00, 0x00, 0x04, 0x00, 0x00, 0x00, 0xf4, 0xfb, 0xff, 0xff, 0x14, 0x00, 0x00, 0x00, 0x1c, 0x00, 0x00, 0x00, 
	0x1c, 0x00, 0x00, 0x00, 0x0d, 0x00, 0x00, 0x00, 0x6c, 0x00, 0x00, 0x00, 0x02, 0x00, 0x00, 0x00, 0xff, 0xff, 0xff, 0xff, 
	0x04, 0x00, 0x00, 0x00, 0xe0, 0xfb, 0xff, 0xff, 0x52, 0x00, 0x00, 0x00, 0x73, 0x65, 0x71, 0x75, 0x65, 0x6e, 0x74, 0x69, 
	0x61, 0x6c, 0x5f, 0x31, 0x2f, 0x64, 0x65, 0x6e, 0x73, 0x65, 0x5f, 0x36, 0x2f, 0x4d, 0x61, 0x74, 0x4d, 0x75, 0x6c, 0x3b, 
	0x73, 0x65, 0x71, 0x75, 0x65, 0x6e, 0x74, 0x69, 0x61, 0x6c, 0x5f, 0x31, 0x2f, 0x64, 0x65, 0x6e, 0x73, 0x65, 0x5f, 0x36, 
	0x2f, 0x52, 0x65, 0x6c, 0x75, 0x3b, 0x73, 0x65, 0x71, 0x75, 0x65, 0x6e, 0x74, 0x69, 0x61, 0x6c, 0x5f, 0x31, 0x2f, 0x64, 
	0x65, 0x6e, 0x73, 0x65, 0x5f, 0x36, 0x2f, 0x42, 0x69, 0x61, 0x73, 0x41, 0x64, 0x64, 0x00, 0x00, 0x02, 0x00, 0x00, 0x00, 
	0x01, 0x00, 0x00, 0x00, 0x04, 0x00, 0x00, 0x00, 0x80, 0xfc, 0xff, 0xff, 0x14, 0x00, 0x00, 0x00, 0x1c, 0x00, 0x00, 0x00, 
	0x1c, 0x00, 0x00, 0x00, 0x0c, 0x00, 0x00, 0x00, 0x6c, 0x00, 0x00, 0x00, 0x02, 0x00, 0x00, 0x00, 0xff, 0xff, 0xff, 0xff, 
	0x08, 0x00, 0x00, 0x00, 0x6c, 0xfc, 0xff, 0xff, 0x52, 0x00, 0x00, 0x00, 0x73, 0x65, 0x71, 0x75, 0x65, 0x6e, 0x74, 0x69, 
	0x61, 0x6c, 0x5f, 0x31, 0x2f, 0x64, 0x65, 0x6e, 0x73, 0x65, 0x5f, 0x35, 0x2f, 0x4d, 0x61, 0x74, 0x4d, 0x75, 0x6c, 0x3b, 
	0x73, 0x65, 0x71, 0x75, 0x65, 0x6e, 0x74, 0x69, 0x61, 0x6c, 0x5f, 0x31, 0x2f, 0x64, 0x65, 0x6e, 0x73, 0x65, 0x5f, 0x35, 
	0x2f, 0x52, 0x65, 0x6c, 0x75, 0x3b, 0x73, 0x65, 0x71, 0x75, 0x65, 0x6e, 0x74, 0x69, 0x61, 0x6c, 0x5f, 0x31, 0x2f, 0x64, 
	0x65, 0x6e, 0x73, 0x65, 0x5f, 0x35, 0x2f, 0x42, 0x69, 0x61, 0x73, 0x41, 0x64, 0x64, 0x00, 0x00, 0x02, 0x00, 0x00, 0x00, 
	0x01, 0x00, 0x00, 0x00, 0x08, 0x00, 0x00, 0x00, 0x6a, 0xfd, 0xff, 0xff, 0x10, 0x00, 0x00, 0x00, 0x10, 0x00, 0x00, 0x00, 
	0x0b, 0x00, 0x00, 0x00, 0x28, 0x00, 0x00, 0x00, 0xe8, 0xfc, 0xff, 0xff, 0x1b, 0x00, 0x00, 0x00, 0x73, 0x65, 0x71, 0x75, 
	0x65, 0x6e, 0x74, 0x69, 0x61, 0x6c, 0x5f, 0x31, 0x2f, 0x64, 0x65, 0x6e, 0x73, 0x65, 0x5f, 0x39, 0x2f, 0x4d, 0x61, 0x74, 
	0x4d, 0x75, 0x6c, 0x00, 0x02, 0x00, 0x00, 0x00, 0x10, 0x00, 0x00, 0x00, 0x08, 0x00, 0x00, 0x00, 0xae, 0xfd, 0xff, 0xff, 
	0x10, 0x00, 0x00, 0x00, 0x10, 0x00, 0x00, 0x00, 0x0a, 0x00, 0x00, 0x00, 0x28, 0x00, 0x00, 0x00, 0x2c, 0xfd, 0xff, 0xff, 
	0x1b, 0x00, 0x00, 0x00, 0x73, 0x65, 0x71, 0x75, 0x65, 0x6e, 0x74, 0x69, 0x61, 0x6c, 0x5f, 0x31, 0x2f, 0x64, 0x65, 0x6e, 
	0x73, 0x65, 0x5f, 0x38, 0x2f, 0x4d, 0x61, 0x74, 0x4d, 0x75, 0x6c, 0x00, 0x02, 0x00, 0x00, 0x00, 0x08, 0x00, 0x00, 0x00, 
	0x04, 0x00, 0x00, 0x00, 0xf2, 0xfd, 0xff, 0xff, 0x10, 0x00, 0x00, 0x00, 0x10, 0x00, 0x00, 0x00, 0x09, 0x00, 0x00, 0x00, 
	0x28, 0x00, 0x00, 0x00, 0x70, 0xfd, 0xff, 0xff, 0x1b, 0x00, 0x00, 0x00, 0x73, 0x65, 0x71, 0x75, 0x65, 0x6e, 0x74, 0x69, 
	0x61, 0x6c, 0x5f, 0x31, 0x2f, 0x64, 0x65, 0x6e, 0x73, 0x65, 0x5f, 0x37, 0x2f, 0x4d, 0x61, 0x74, 0x4d, 0x75, 0x6c, 0x00, 
	0x02, 0x00, 0x00, 0x00, 0x04, 0x00, 0x00, 0x00, 0x04, 0x00, 0x00, 0x00, 0x36, 0xfe, 0xff, 0xff, 0x10, 0x00, 0x00, 0x00, 
	0x10, 0x00, 0x00, 0x00, 0x08, 0x00, 0x00, 0x00, 0x28, 0x00, 0x00, 0x00, 0xb4, 0xfd, 0xff, 0xff, 0x1b, 0x00, 0x00, 0x00, 
	0x73, 0x65, 0x71, 0x75, 0x65, 0x6e, 0x74, 0x69, 0x61, 0x6c, 0x5f, 0x31, 0x2f, 0x64, 0x65, 0x6e, 0x73, 0x65, 0x5f, 0x36, 
	0x2f, 0x4d, 0x61, 0x74, 0x4d, 0x75, 0x6c, 0x00, 0x02, 0x00, 0x00, 0x00, 0x04, 0x00, 0x00, 0x00, 0x08, 0x00, 0x00, 0x00, 
	0x7a, 0xfe, 0xff, 0xff, 0x10, 0x00, 0x00, 0x00, 0x10, 0x00, 0x00, 0x00, 0x07, 0x00, 0x00, 0x00, 0x28, 0x00, 0x00, 0x00, 
	0xf8, 0xfd, 0xff, 0xff, 0x1b, 0x00, 0x00, 0x00, 0x73, 0x65, 0x71, 0x75, 0x65, 0x6e, 0x74, 0x69, 0x61, 0x6c, 0x5f, 0x31, 
	0x2f, 0x64, 0x65, 0x6e, 0x73, 0x65, 0x5f, 0x35, 0x2f, 0x4d, 0x61, 0x74, 0x4d, 0x75, 0x6c, 0x00, 0x02, 0x00, 0x00, 0x00, 
	0x08, 0x00, 0x00, 0x00, 0x10, 0x00, 0x00, 0x00, 0xbe, 0xfe, 0xff, 0xff, 0x10, 0x00, 0x00, 0x00, 0x10, 0x00, 0x00, 0x00, 
	0x06, 0x00, 0x00, 0x00, 0x38, 0x00, 0x00, 0x00, 0x3c, 0xfe, 0xff, 0xff, 0x2b, 0x00, 0x00, 0x00, 0x73, 0x65, 0x71, 0x75, 
	0x65, 0x6e, 0x74, 0x69, 0x61, 0x6c, 0x5f, 0x31, 0x2f, 0x64, 0x65, 0x6e, 0x73, 0x65, 0x5f, 0x35, 0x2f, 0x42, 0x69, 0x61, 
	0x73, 0x41, 0x64, 0x64, 0x2f, 0x52, 0x65, 0x61, 0x64, 0x56, 0x61, 0x72, 0x69, 0x61, 0x62, 0x6c, 0x65, 0x4f, 0x70, 0x00, 
	0x01, 0x00, 0x00, 0x00, 0x08, 0x00, 0x00, 0x00, 0x0e, 0xff, 0xff, 0xff, 0x10, 0x00, 0x00, 0x00, 0x10, 0x00, 0x00, 0x00, 
	0x05, 0x00, 0x00, 0x00, 0x38, 0x00, 0x00, 0x00, 0x8c, 0xfe, 0xff, 0xff, 0x2b, 0x00, 0x00, 0x00, 0x73, 0x65, 0x71, 0x75, 
	0x65, 0x6e, 0x74, 0x69, 0x61, 0x6c, 0x5f, 0x31, 0x2f, 0x64, 0x65, 0x6e, 0x73, 0x65, 0x5f, 0x36, 0x2f, 0x42, 0x69, 0x61, 
	0x73, 0x41, 0x64, 0x64, 0x2f, 0x52, 0x65, 0x61, 0x64, 0x56, 0x61, 0x72, 0x69, 0x61, 0x62, 0x6c, 0x65, 0x4f, 0x70, 0x00, 
	0x01, 0x00, 0x00, 0x00, 0x04, 0x00, 0x00, 0x00, 0x5e, 0xff, 0xff, 0xff, 0x10, 0x00, 0x00, 0x00, 0x10, 0x00, 0x00, 0x00, 
	0x04, 0x00, 0x00, 0x00, 0x38, 0x00, 0x00, 0x00, 0xdc, 0xfe, 0xff, 0xff, 0x2b, 0x00, 0x00, 0x00, 0x73, 0x65, 0x71, 0x75, 
	0x65, 0x6e, 0x74, 0x69, 0x61, 0x6c, 0x5f, 0x31, 0x2f, 0x64, 0x65, 0x6e, 0x73, 0x65, 0x5f, 0x37, 0x2f, 0x42, 0x69, 0x61, 
	0x73, 0x41, 0x64, 0x64, 0x2f, 0x52, 0x65, 0x61, 0x64, 0x56, 0x61, 0x72, 0x69, 0x61, 0x62, 0x6c, 0x65, 0x4f, 0x70, 0x00, 
	0x01, 0x00, 0x00, 0x00, 0x04, 0x00, 0x00, 0x00, 0xae, 0xff, 0xff, 0xff, 0x10, 0x00, 0x00, 0x00, 0x10, 0x00, 0x00, 0x00, 
	0x03, 0x00, 0x00, 0x00, 0x38, 0x00, 0x00, 0x00, 0x2c, 0xff, 0xff, 0xff, 0x2b, 0x00, 0x00, 0x00, 0x73, 0x65, 0x71, 0x75, 
	0x65, 0x6e, 0x74, 0x69, 0x61, 0x6c, 0x5f, 0x31, 0x2f, 0x64, 0x65, 0x6e, 0x73, 0x65, 0x5f, 0x38, 0x2f, 0x42, 0x69, 0x61, 
	0x73, 0x41, 0x64, 0x64, 0x2f, 0x52, 0x65, 0x61, 0x64, 0x56, 0x61, 0x72, 0x69, 0x61, 0x62, 0x6c, 0x65, 0x4f, 0x70, 0x00, 
	0x01, 0x00, 0x00, 0x00, 0x08, 0x00, 0x00, 0x00, 0x00, 0x00, 0x0e, 0x00, 0x14, 0x00, 0x10, 0x00, 0x00, 0x00, 0x0c, 0x00, 
	0x08, 0x00, 0x04, 0x00, 0x0e, 0x00, 0x00, 0x00, 0x10, 0x00, 0x00, 0x00, 0x10, 0x00, 0x00, 0x00, 0x02, 0x00, 0x00, 0x00, 
	0x38, 0x00, 0x00, 0x00, 0x8c, 0xff, 0xff, 0xff, 0x2b, 0x00, 0x00, 0x00, 0x73, 0x65, 0x71, 0x75, 0x65, 0x6e, 0x74, 0x69, 
	0x61, 0x6c, 0x5f, 0x31, 0x2f, 0x64, 0x65, 0x6e, 0x73, 0x65, 0x5f, 0x39, 0x2f, 0x42, 0x69, 0x61, 0x73, 0x41, 0x64, 0x64, 
	0x2f, 0x52, 0x65, 0x61, 0x64, 0x56, 0x61, 0x72, 0x69, 0x61, 0x62, 0x6c, 0x65, 0x4f, 0x70, 0x00, 0x01, 0x00, 0x00, 0x00, 
	0x10, 0x00, 0x00, 0x00, 0x14, 0x00, 0x18, 0x00, 0x14, 0x00, 0x00, 0x00, 0x10, 0x00, 0x0c, 0x00, 0x08, 0x00, 0x00, 0x00, 
	0x00, 0x00, 0x04, 0x00, 0x14, 0x00, 0x00, 0x00, 0x14, 0x00, 0x00, 0x00, 0x20, 0x00, 0x00, 0x00, 0x20, 0x00, 0x00, 0x00, 
	0x01, 0x00, 0x00, 0x00, 0x38, 0x00, 0x00, 0x00, 0x02, 0x00, 0x00, 0x00, 0xff, 0xff, 0xff, 0xff, 0x10, 0x00, 0x00, 0x00, 
	0x04, 0x00, 0x04, 0x00, 0x04, 0x00, 0x00, 0x00, 0x19, 0x00, 0x00, 0x00, 0x73, 0x65, 0x72, 0x76, 0x69, 0x6e, 0x67, 0x5f, 
	0x64, 0x65, 0x66, 0x61, 0x75, 0x6c, 0x74, 0x5f, 0x69, 0x6e, 0x70, 0x75, 0x74, 0x5f, 0x32, 0x3a, 0x30, 0x00, 0x00, 0x00, 
	0x02, 0x00, 0x00, 0x00, 0x01, 0x00, 0x00, 0x00, 0x10, 0x00, 0x00, 0x00, 0x02, 0x00, 0x00, 0x00, 0x20, 0x00, 0x00, 0x00, 
	0x04, 0x00, 0x00, 0x00, 0xf4, 0xff, 0xff, 0xff, 0x0e, 0x00, 0x00, 0x00, 0x00, 0x00, 0x00, 0x0e, 0x0c, 0x00, 0x0c, 0x00, 
	0x0b, 0x00, 0x00, 0x00, 0x00, 0x00, 0x04, 0x00, 0x0c, 0x00, 0x00, 0x00, 0x09, 0x00, 0x00, 0x00, 0x00, 0x00, 0x00, 0x09, 
	};


const uint8_t * GetModelPointer()
{
    return g_Model;
}

size_t GetModelLen()
{
    return sizeof(g_Model);
}


const float GetThreshold()
{
    return 0.006915107369422913;
}                    
                    
const float GetMaxValTrain()
{
    return 3560.1638024999997;
}

const uint8_t GetFrameLenSample()
{
    return 300;
}

const float GetMinValTrain()
{
    return -0.619863934954322;
}

